node {
  name: "x"
  op: "Placeholder"
  attr {
    key: "dtype"
    value {
      type: DT_FLOAT
    }
  }
  attr {
    key: "shape"
    value {
      shape {
      }
    }
  }
}
node {
  name: "y_"
  op: "Placeholder"
  attr {
    key: "dtype"
    value {
      type: DT_FLOAT
    }
  }
  attr {
    key: "shape"
    value {
      shape {
      }
    }
  }
}
node {
  name: "zeros"
  op: "Const"
  attr {
    key: "dtype"
    value {
      type: DT_FLOAT
    }
  }
  attr {
    key: "value"
    value {
      tensor {
        dtype: DT_FLOAT
        tensor_shape {
          dim {
            size: 784
          }
          dim {
            size: 10
          }
        }
        float_val: 0.0
      }
    }
  }
}
node {
  name: "w"
  op: "Variable"
  attr {
    key: "container"
    value {
      s: ""
    }
  }
  attr {
    key: "dtype"
    value {
      type: DT_FLOAT
    }
  }
  attr {
    key: "shape"
    value {
      shape {
        dim {
          size: 784
        }
        dim {
          size: 10
        }
      }
    }
  }
  attr {
    key: "shared_name"
    value {
      s: ""
    }
  }
}
node {
  name: "w/Assign"
  op: "Assign"
  input: "w"
  input: "zeros"
  attr {
    key: "T"
    value {
      type: DT_FLOAT
    }
  }
  attr {
    key: "_class"
    value {
      list {
        s: "loc:@w"
      }
    }
  }
  attr {
    key: "use_locking"
    value {
      b: true
    }
  }
  attr {
    key: "validate_shape"
    value {
      b: true
    }
  }
}
node {
  name: "w/read"
  op: "Identity"
  input: "w"
  attr {
    key: "T"
    value {
      type: DT_FLOAT
    }
  }
  attr {
    key: "_class"
    value {
      list {
        s: "loc:@w"
      }
    }
  }
}
node {
  name: "zeros_1"
  op: "Const"
  attr {
    key: "dtype"
    value {
      type: DT_FLOAT
    }
  }
  attr {
    key: "value"
    value {
      tensor {
        dtype: DT_FLOAT
        tensor_shape {
          dim {
            size: 10
          }
        }
        float_val: 0.0
      }
    }
  }
}
node {
  name: "b"
  op: "Variable"
  attr {
    key: "container"
    value {
      s: ""
    }
  }
  attr {
    key: "dtype"
    value {
      type: DT_FLOAT
    }
  }
  attr {
    key: "shape"
    value {
      shape {
        dim {
          size: 10
        }
      }
    }
  }
  attr {
    key: "shared_name"
    value {
      s: ""
    }
  }
}
node {
  name: "b/Assign"
  op: "Assign"
  input: "b"
  input: "zeros_1"
  attr {
    key: "T"
    value {
      type: DT_FLOAT
    }
  }
  attr {
    key: "_class"
    value {
      list {
        s: "loc:@b"
      }
    }
  }
  attr {
    key: "use_locking"
    value {
      b: true
    }
  }
  attr {
    key: "validate_shape"
    value {
      b: true
    }
  }
}
node {
  name: "b/read"
  op: "Identity"
  input: "b"
  attr {
    key: "T"
    value {
      type: DT_FLOAT
    }
  }
  attr {
    key: "_class"
    value {
      list {
        s: "loc:@b"
      }
    }
  }
}
node {
  name: "MatMul"
  op: "MatMul"
  input: "x"
  input: "w/read"
  attr {
    key: "T"
    value {
      type: DT_FLOAT
    }
  }
  attr {
    key: "transpose_a"
    value {
      b: false
    }
  }
  attr {
    key: "transpose_b"
    value {
      b: false
    }
  }
}
node {
  name: "add"
  op: "Add"
  input: "MatMul"
  input: "b/read"
  attr {
    key: "T"
    value {
      type: DT_FLOAT
    }
  }
}
node {
  name: "Softmax"
  op: "Softmax"
  input: "add"
  attr {
    key: "T"
    value {
      type: DT_FLOAT
    }
  }
}
node {
  name: "Log"
  op: "Log"
  input: "Softmax"
  attr {
    key: "T"
    value {
      type: DT_FLOAT
    }
  }
}
node {
  name: "mul"
  op: "Mul"
  input: "y_"
  input: "Log"
  attr {
    key: "T"
    value {
      type: DT_FLOAT
    }
  }
}
node {
  name: "Const"
  op: "Const"
  attr {
    key: "dtype"
    value {
      type: DT_INT32
    }
  }
  attr {
    key: "value"
    value {
      tensor {
        dtype: DT_INT32
        tensor_shape {
          dim {
            size: 2
          }
        }
        tensor_content: "\000\000\000\000\001\000\000\000"
      }
    }
  }
}
node {
  name: "Sum"
  op: "Sum"
  input: "mul"
  input: "Const"
  attr {
    key: "T"
    value {
      type: DT_FLOAT
    }
  }
  attr {
    key: "Tidx"
    value {
      type: DT_INT32
    }
  }
  attr {
    key: "keep_dims"
    value {
      b: false
    }
  }
}
node {
  name: "Neg"
  op: "Neg"
  input: "Sum"
  attr {
    key: "T"
    value {
      type: DT_FLOAT
    }
  }
}
node {
  name: "gradients/Shape"
  op: "Const"
  attr {
    key: "dtype"
    value {
      type: DT_INT32
    }
  }
  attr {
    key: "value"
    value {
      tensor {
        dtype: DT_INT32
        tensor_shape {
          dim {
          }
        }
      }
    }
  }
}
node {
  name: "gradients/Const"
  op: "Const"
  attr {
    key: "dtype"
    value {
      type: DT_FLOAT
    }
  }
  attr {
    key: "value"
    value {
      tensor {
        dtype: DT_FLOAT
        tensor_shape {
        }
        float_val: 1.0
      }
    }
  }
}
node {
  name: "gradients/Fill"
  op: "Fill"
  input: "gradients/Shape"
  input: "gradients/Const"
  attr {
    key: "T"
    value {
      type: DT_FLOAT
    }
  }
}
node {
  name: "gradients/Neg_grad/Neg"
  op: "Neg"
  input: "gradients/Fill"
  attr {
    key: "T"
    value {
      type: DT_FLOAT
    }
  }
}
node {
  name: "gradients/Sum_grad/Reshape/shape"
  op: "Const"
  attr {
    key: "dtype"
    value {
      type: DT_INT32
    }
  }
  attr {
    key: "value"
    value {
      tensor {
        dtype: DT_INT32
        tensor_shape {
          dim {
            size: 2
          }
        }
        tensor_content: "\001\000\000\000\001\000\000\000"
      }
    }
  }
}
node {
  name: "gradients/Sum_grad/Reshape"
  op: "Reshape"
  input: "gradients/Neg_grad/Neg"
  input: "gradients/Sum_grad/Reshape/shape"
  attr {
    key: "T"
    value {
      type: DT_FLOAT
    }
  }
  attr {
    key: "Tshape"
    value {
      type: DT_INT32
    }
  }
}
node {
  name: "gradients/Sum_grad/Shape"
  op: "Shape"
  input: "mul"
  attr {
    key: "T"
    value {
      type: DT_FLOAT
    }
  }
  attr {
    key: "out_type"
    value {
      type: DT_INT32
    }
  }
}
node {
  name: "gradients/Sum_grad/Tile"
  op: "Tile"
  input: "gradients/Sum_grad/Reshape"
  input: "gradients/Sum_grad/Shape"
  attr {
    key: "T"
    value {
      type: DT_FLOAT
    }
  }
  attr {
    key: "Tmultiples"
    value {
      type: DT_INT32
    }
  }
}
node {
  name: "gradients/mul_grad/Shape"
  op: "Shape"
  input: "y_"
  attr {
    key: "T"
    value {
      type: DT_FLOAT
    }
  }
  attr {
    key: "out_type"
    value {
      type: DT_INT32
    }
  }
}
node {
  name: "gradients/mul_grad/Shape_1"
  op: "Shape"
  input: "Log"
  attr {
    key: "T"
    value {
      type: DT_FLOAT
    }
  }
  attr {
    key: "out_type"
    value {
      type: DT_INT32
    }
  }
}
node {
  name: "gradients/mul_grad/BroadcastGradientArgs"
  op: "BroadcastGradientArgs"
  input: "gradients/mul_grad/Shape"
  input: "gradients/mul_grad/Shape_1"
  attr {
    key: "T"
    value {
      type: DT_INT32
    }
  }
}
node {
  name: "gradients/mul_grad/mul"
  op: "Mul"
  input: "gradients/Sum_grad/Tile"
  input: "Log"
  attr {
    key: "T"
    value {
      type: DT_FLOAT
    }
  }
}
node {
  name: "gradients/mul_grad/Sum"
  op: "Sum"
  input: "gradients/mul_grad/mul"
  input: "gradients/mul_grad/BroadcastGradientArgs"
  attr {
    key: "T"
    value {
      type: DT_FLOAT
    }
  }
  attr {
    key: "Tidx"
    value {
      type: DT_INT32
    }
  }
  attr {
    key: "keep_dims"
    value {
      b: false
    }
  }
}
node {
  name: "gradients/mul_grad/Reshape"
  op: "Reshape"
  input: "gradients/mul_grad/Sum"
  input: "gradients/mul_grad/Shape"
  attr {
    key: "T"
    value {
      type: DT_FLOAT
    }
  }
  attr {
    key: "Tshape"
    value {
      type: DT_INT32
    }
  }
}
node {
  name: "gradients/mul_grad/mul_1"
  op: "Mul"
  input: "y_"
  input: "gradients/Sum_grad/Tile"
  attr {
    key: "T"
    value {
      type: DT_FLOAT
    }
  }
}
node {
  name: "gradients/mul_grad/Sum_1"
  op: "Sum"
  input: "gradients/mul_grad/mul_1"
  input: "gradients/mul_grad/BroadcastGradientArgs:1"
  attr {
    key: "T"
    value {
      type: DT_FLOAT
    }
  }
  attr {
    key: "Tidx"
    value {
      type: DT_INT32
    }
  }
  attr {
    key: "keep_dims"
    value {
      b: false
    }
  }
}
node {
  name: "gradients/mul_grad/Reshape_1"
  op: "Reshape"
  input: "gradients/mul_grad/Sum_1"
  input: "gradients/mul_grad/Shape_1"
  attr {
    key: "T"
    value {
      type: DT_FLOAT
    }
  }
  attr {
    key: "Tshape"
    value {
      type: DT_INT32
    }
  }
}
node {
  name: "gradients/mul_grad/tuple/group_deps"
  op: "NoOp"
  input: "^gradients/mul_grad/Reshape"
  input: "^gradients/mul_grad/Reshape_1"
}
node {
  name: "gradients/mul_grad/tuple/control_dependency"
  op: "Identity"
  input: "gradients/mul_grad/Reshape"
  input: "^gradients/mul_grad/tuple/group_deps"
  attr {
    key: "T"
    value {
      type: DT_FLOAT
    }
  }
  attr {
    key: "_class"
    value {
      list {
        s: "loc:@gradients/mul_grad/Reshape"
      }
    }
  }
}
node {
  name: "gradients/mul_grad/tuple/control_dependency_1"
  op: "Identity"
  input: "gradients/mul_grad/Reshape_1"
  input: "^gradients/mul_grad/tuple/group_deps"
  attr {
    key: "T"
    value {
      type: DT_FLOAT
    }
  }
  attr {
    key: "_class"
    value {
      list {
        s: "loc:@gradients/mul_grad/Reshape_1"
      }
    }
  }
}
node {
  name: "gradients/Log_grad/Reciprocal"
  op: "Reciprocal"
  input: "Softmax"
  input: "^gradients/mul_grad/tuple/control_dependency_1"
  attr {
    key: "T"
    value {
      type: DT_FLOAT
    }
  }
}
node {
  name: "gradients/Log_grad/mul"
  op: "Mul"
  input: "gradients/mul_grad/tuple/control_dependency_1"
  input: "gradients/Log_grad/Reciprocal"
  attr {
    key: "T"
    value {
      type: DT_FLOAT
    }
  }
}
node {
  name: "gradients/Softmax_grad/mul"
  op: "Mul"
  input: "gradients/Log_grad/mul"
  input: "Softmax"
  attr {
    key: "T"
    value {
      type: DT_FLOAT
    }
  }
}
node {
  name: "gradients/Softmax_grad/Sum/reduction_indices"
  op: "Const"
  attr {
    key: "dtype"
    value {
      type: DT_INT32
    }
  }
  attr {
    key: "value"
    value {
      tensor {
        dtype: DT_INT32
        tensor_shape {
          dim {
            size: 1
          }
        }
        int_val: 1
      }
    }
  }
}
node {
  name: "gradients/Softmax_grad/Sum"
  op: "Sum"
  input: "gradients/Softmax_grad/mul"
  input: "gradients/Softmax_grad/Sum/reduction_indices"
  attr {
    key: "T"
    value {
      type: DT_FLOAT
    }
  }
  attr {
    key: "Tidx"
    value {
      type: DT_INT32
    }
  }
  attr {
    key: "keep_dims"
    value {
      b: false
    }
  }
}
node {
  name: "gradients/Softmax_grad/Reshape/shape"
  op: "Const"
  attr {
    key: "dtype"
    value {
      type: DT_INT32
    }
  }
  attr {
    key: "value"
    value {
      tensor {
        dtype: DT_INT32
        tensor_shape {
          dim {
            size: 2
          }
        }
        tensor_content: "\377\377\377\377\001\000\000\000"
      }
    }
  }
}
node {
  name: "gradients/Softmax_grad/Reshape"
  op: "Reshape"
  input: "gradients/Softmax_grad/Sum"
  input: "gradients/Softmax_grad/Reshape/shape"
  attr {
    key: "T"
    value {
      type: DT_FLOAT
    }
  }
  attr {
    key: "Tshape"
    value {
      type: DT_INT32
    }
  }
}
node {
  name: "gradients/Softmax_grad/sub"
  op: "Sub"
  input: "gradients/Log_grad/mul"
  input: "gradients/Softmax_grad/Reshape"
  attr {
    key: "T"
    value {
      type: DT_FLOAT
    }
  }
}
node {
  name: "gradients/Softmax_grad/mul_1"
  op: "Mul"
  input: "gradients/Softmax_grad/sub"
  input: "Softmax"
  attr {
    key: "T"
    value {
      type: DT_FLOAT
    }
  }
}
node {
  name: "gradients/add_grad/Shape"
  op: "Shape"
  input: "MatMul"
  attr {
    key: "T"
    value {
      type: DT_FLOAT
    }
  }
  attr {
    key: "out_type"
    value {
      type: DT_INT32
    }
  }
}
node {
  name: "gradients/add_grad/Shape_1"
  op: "Const"
  attr {
    key: "dtype"
    value {
      type: DT_INT32
    }
  }
  attr {
    key: "value"
    value {
      tensor {
        dtype: DT_INT32
        tensor_shape {
          dim {
            size: 1
          }
        }
        int_val: 10
      }
    }
  }
}
node {
  name: "gradients/add_grad/BroadcastGradientArgs"
  op: "BroadcastGradientArgs"
  input: "gradients/add_grad/Shape"
  input: "gradients/add_grad/Shape_1"
  attr {
    key: "T"
    value {
      type: DT_INT32
    }
  }
}
node {
  name: "gradients/add_grad/Sum"
  op: "Sum"
  input: "gradients/Softmax_grad/mul_1"
  input: "gradients/add_grad/BroadcastGradientArgs"
  attr {
    key: "T"
    value {
      type: DT_FLOAT
    }
  }
  attr {
    key: "Tidx"
    value {
      type: DT_INT32
    }
  }
  attr {
    key: "keep_dims"
    value {
      b: false
    }
  }
}
node {
  name: "gradients/add_grad/Reshape"
  op: "Reshape"
  input: "gradients/add_grad/Sum"
  input: "gradients/add_grad/Shape"
  attr {
    key: "T"
    value {
      type: DT_FLOAT
    }
  }
  attr {
    key: "Tshape"
    value {
      type: DT_INT32
    }
  }
}
node {
  name: "gradients/add_grad/Sum_1"
  op: "Sum"
  input: "gradients/Softmax_grad/mul_1"
  input: "gradients/add_grad/BroadcastGradientArgs:1"
  attr {
    key: "T"
    value {
      type: DT_FLOAT
    }
  }
  attr {
    key: "Tidx"
    value {
      type: DT_INT32
    }
  }
  attr {
    key: "keep_dims"
    value {
      b: false
    }
  }
}
node {
  name: "gradients/add_grad/Reshape_1"
  op: "Reshape"
  input: "gradients/add_grad/Sum_1"
  input: "gradients/add_grad/Shape_1"
  attr {
    key: "T"
    value {
      type: DT_FLOAT
    }
  }
  attr {
    key: "Tshape"
    value {
      type: DT_INT32
    }
  }
}
node {
  name: "gradients/add_grad/tuple/group_deps"
  op: "NoOp"
  input: "^gradients/add_grad/Reshape"
  input: "^gradients/add_grad/Reshape_1"
}
node {
  name: "gradients/add_grad/tuple/control_dependency"
  op: "Identity"
  input: "gradients/add_grad/Reshape"
  input: "^gradients/add_grad/tuple/group_deps"
  attr {
    key: "T"
    value {
      type: DT_FLOAT
    }
  }
  attr {
    key: "_class"
    value {
      list {
        s: "loc:@gradients/add_grad/Reshape"
      }
    }
  }
}
node {
  name: "gradients/add_grad/tuple/control_dependency_1"
  op: "Identity"
  input: "gradients/add_grad/Reshape_1"
  input: "^gradients/add_grad/tuple/group_deps"
  attr {
    key: "T"
    value {
      type: DT_FLOAT
    }
  }
  attr {
    key: "_class"
    value {
      list {
        s: "loc:@gradients/add_grad/Reshape_1"
      }
    }
  }
}
node {
  name: "gradients/MatMul_grad/MatMul"
  op: "MatMul"
  input: "gradients/add_grad/tuple/control_dependency"
  input: "w/read"
  attr {
    key: "T"
    value {
      type: DT_FLOAT
    }
  }
  attr {
    key: "transpose_a"
    value {
      b: false
    }
  }
  attr {
    key: "transpose_b"
    value {
      b: true
    }
  }
}
node {
  name: "gradients/MatMul_grad/MatMul_1"
  op: "MatMul"
  input: "x"
  input: "gradients/add_grad/tuple/control_dependency"
  attr {
    key: "T"
    value {
      type: DT_FLOAT
    }
  }
  attr {
    key: "transpose_a"
    value {
      b: true
    }
  }
  attr {
    key: "transpose_b"
    value {
      b: false
    }
  }
}
node {
  name: "gradients/MatMul_grad/tuple/group_deps"
  op: "NoOp"
  input: "^gradients/MatMul_grad/MatMul"
  input: "^gradients/MatMul_grad/MatMul_1"
}
node {
  name: "gradients/MatMul_grad/tuple/control_dependency"
  op: "Identity"
  input: "gradients/MatMul_grad/MatMul"
  input: "^gradients/MatMul_grad/tuple/group_deps"
  attr {
    key: "T"
    value {
      type: DT_FLOAT
    }
  }
  attr {
    key: "_class"
    value {
      list {
        s: "loc:@gradients/MatMul_grad/MatMul"
      }
    }
  }
}
node {
  name: "gradients/MatMul_grad/tuple/control_dependency_1"
  op: "Identity"
  input: "gradients/MatMul_grad/MatMul_1"
  input: "^gradients/MatMul_grad/tuple/group_deps"
  attr {
    key: "T"
    value {
      type: DT_FLOAT
    }
  }
  attr {
    key: "_class"
    value {
      list {
        s: "loc:@gradients/MatMul_grad/MatMul_1"
      }
    }
  }
}
node {
  name: "GradientDescent/learning_rate"
  op: "Const"
  attr {
    key: "dtype"
    value {
      type: DT_FLOAT
    }
  }
  attr {
    key: "value"
    value {
      tensor {
        dtype: DT_FLOAT
        tensor_shape {
        }
        float_val: 0.009999999776482582
      }
    }
  }
}
node {
  name: "GradientDescent/update_w/ApplyGradientDescent"
  op: "ApplyGradientDescent"
  input: "w"
  input: "GradientDescent/learning_rate"
  input: "gradients/MatMul_grad/tuple/control_dependency_1"
  attr {
    key: "T"
    value {
      type: DT_FLOAT
    }
  }
  attr {
    key: "_class"
    value {
      list {
        s: "loc:@w"
      }
    }
  }
  attr {
    key: "use_locking"
    value {
      b: false
    }
  }
}
node {
  name: "GradientDescent/update_b/ApplyGradientDescent"
  op: "ApplyGradientDescent"
  input: "b"
  input: "GradientDescent/learning_rate"
  input: "gradients/add_grad/tuple/control_dependency_1"
  attr {
    key: "T"
    value {
      type: DT_FLOAT
    }
  }
  attr {
    key: "_class"
    value {
      list {
        s: "loc:@b"
      }
    }
  }
  attr {
    key: "use_locking"
    value {
      b: false
    }
  }
}
node {
  name: "GradientDescent"
  op: "NoOp"
  input: "^GradientDescent/update_w/ApplyGradientDescent"
  input: "^GradientDescent/update_b/ApplyGradientDescent"
}
node {
  name: "init"
  op: "NoOp"
  input: "^w/Assign"
  input: "^b/Assign"
}
node {
  name: "input"
  op: "Placeholder"
  attr {
    key: "dtype"
    value {
      type: DT_FLOAT
    }
  }
  attr {
    key: "shape"
    value {
      shape {
      }
    }
  }
}
node {
  name: "MatMul_1/b"
  op: "Const"
  attr {
    key: "dtype"
    value {
      type: DT_FLOAT
    }
  }
  attr {
    key: "value"
    value {
      tensor {
        dtype: DT_FLOAT
        tensor_shape {
          dim {
            size: 784
          }
          dim {
            size: 10
          }
        }
        tensor_content: "\000\000\000\000\000\000\000\000\000\000\000\000\000\000\000\000\000\000\000\000\000\000\000\000\000\000\000\000\000\000\000\000\000\000\000\000\000\000\000\000\000\000\000\000\000\000\000\000\000\000\000\000\000\000\000\000\000\000\000\000\000\000\000\000\000\000\000\000\000\000\000\000\000\000\000\000\000\000\000\000\000\000\000\000\000\000\000\000\000\000\000\000\000\000\000\000\000\000\000\000\000\000\000\000\000\000\000\000\000\000\000\000\000\000\000\000\000\000\000\000\000\000\000\000\000\000\000\000\000\000\000\000\000\000\000\000\000\000\000\000\000\000\000\000\000\000\000\000\000\000\000\000\000\000\000\000\000\000\000\000\000\000\000\000\000\000\000\000\000\000\000\000\000\000\000\000\000\000\000\000\000\000\000\000\000\000\000\000\000\000\000\000\000\000\000\000\000\000\000\000\000\000\000\000\000\000\000\000\000\000\000\000\000\000\000\000\000\000\000\000\000\000\000\000\000\000\000\000\000\000\000\000\000\000\000\000\000\000\000\000\000\000\000\000\000\000\000\000\000\000\000\000\000\000\000\000\000\000\000\000\000\000\000\000\000\000\000\000\000\000\000\000\000\000\000\000\000\000\000\000\000\000\000\000\000\000\000\000\000\000\000\000\000\000\000\000\000\000\000\000\000\000\000\000\000\000\000\000\000\000\000\000\000\000\000\000\000\000\000\000\000\000\000\000\000\000\000\000\000\000\000\000\000\000\000\000\000\000\000\000\000\000\000\000\000\000\000\000\000\000\000\000\000\000\000\000\000\000\000\000\000\000\000\000\000\000\000\000\000\000\000\000\000\000\000\000\000\000\000\000\000\000\000\000\000\000\000\000\000\000\000\000\000\000\000\000\000\000\000\000\000\000\000\000\000\000\000\000\000\000\000\000\000\000\000\000\000\000\000\000\000\000\000\000\000\000\000\000\000\000\000\000\000\000\000\000\000\000\000\000\000\000\000\000\000\000\000\000\000\000\000\000\000\000\000\000\000\000\000\000\000\000\000\000\000\000\000\000\000\000\000\000\000\000\000\000\000\000\000\000\376\"\231\265\032\035\233\266t\272\205\272-\274x\270\236L\273\273\352\255\252\270\016X\002<<;\224\266*\020\377\270`8x\272N\233\027\267K\207*\267\374\016\014\273\214\375\014\271\222\253M\274\000?;\271\240W\216<3\031+\267\034[\214\271a\003\010\273\364!\364\266*\014I\263\240\'\3428|\371\253\266\225\266-\270\233r\331\264\010.N\270G\337\034\265\2720\320\265\001\275\030\266M\301\242\264\033\010\006\261\026\305\2266\245Le\264\032\236\347\265\021\367\220\262\005t\t\266\265)\321\262&\313\212\263\251\246\313\263\000\000\000\000\000\000\000\000\000\000\000\000\000\000\000\000\000\000\000\000\000\000\000\000\000\000\000\000\000\000\000\000\000\000\000\000\000\000\000\000\000\000\000\000\000\000\000\000\000\000\000\000\000\000\000\000\000\000\000\000\000\000\000\000\000\000\000\000\000\000\000\000\000\000\000\000\000\000\000\000\000\000\000\000\000\000\000\000\000\000\000\000\000\000\000\000\000\000\000\000\000\000\000\000\000\000\000\000\000\000\000\000\000\000\000\000\000\000\000\000\000\000\000\000\000\000\000\000\000\000\000\000\000\000\000\000\000\000\000\000\000\000\000\000\000\000\000\000\000\000\000\000\000\000\000\000\000\000\000\000\000\000\000\000\000\000\000\000\000\000\000\000\000\000\000\000\000\000\000\000\000\000\000\000\000\000\000\000\000\000\000\000\000\000\000\000\000\000\000\000\000\000\000\000\000\000\000\000\000\000\000\000\000\000\000\000\000\000\000\000\000\000\000\000\000\000\000\000\000\000\000\000\000\000\000\000\000\000\000\000\000\000\000\000\000\000\000\000\000\000\000\000\000\000\000\000\000\000\000\000\000\000\000\000\000\000\000\000\000\000\000\000\000\000\000\000\000\000\000\000\000\000\000\000\000\000\000\000\000\000\000\000\000\000\000\000\000\000\000\000\000\000\000\000\000\000\000\000\000\000\000\000\000\000\000\000\000\000\000\000\000\000\000\000\000\000\000\000\000\000\000\000\000\000\000\000\000\000\000\000\000\000\000\000\000\000\000\000\000\000\000\000\000\000\000\000\000\000\000\000\000\000\000\000\000\000\000\000\000\000\000\000\000\000\000\000\000\000\000\000\000\000\000\000\000\000\000\000\000\000\000\000\000\000\000\000\000\000\000\000\000\000\000\000\000\000\000\000\000\000\000\000\000\000\000\000\000\000\000\000\000\000\000\000\000\000\000\000\000\000\000\000\000\000\000\000\000\000\000\000\000\000\000\000\000\000\000\000\000\000\000\000\000\000\000\000\000\000\000\000\000\000\000\000\000\000\000\000\000\000\000\000\000\000\000\000\000\000\000\000\000\000\000\000\000\000\000\000\000\000\000\000\000\000\000\000\000\000\000\000\000\000\000\000\000\000\000\000\000\000\000\000\000\000\000\000\000\000\000\000\000\000\000\000\000\000\000\000\000\000\000\000\000\000\000\000\000\000\000\000\000\000\000\000\000\000\000\000\000\000\000\000\000\000\000\000\000\000\000\000\000\000\000\000\000\000\000\000\000\000\000\000\000\000\000\000\000\000\000\000\000\000\000\000\000\000\000\000\000\000\000\000\000\000\000\000\000\000\000\000\000\000\000\000\000\000\000\000\000\000\000\000\000\000\000\000\000\000\000\000\000\000\000\000\000\000\000\000\000\000\000\000\000\000\000\000\000\000\000\000\237\361_\260fl\201\262L \271\266\333\242\031\261\350\3541\270^\376\025\263XCQ8\230\275\037\263D=0\265\230\014\242\265\202~\302\262s6>\263U\307\227\267\354\355%\262\311\263\301\271\267\337\335\263\241\331\31698a\005\265\265\211\001\266\024\333\222\266AU\267\266\227\240\227\262vm\264\271\214\361a\266\'RM\275Q7\230\267\"wO=T[\365\267\241\017\326\265V\362\376\270\2532Q\267\'\226\257\270k\377i\272_Q\034\267\322\006\362\275h\321\003\270\313@\367=1\232\220\272h4\010\270%\272\312\271\025\340\317\267T>\205\273\231?\301\272)<\007\271\006\t\004\276U\364\262\270I\033\023>u~\361\273\005`\004\272\345g\213\272\036\006\n\271\343\345Q\273\304\256\200\273\256I\331\270\352\217O\275\357\2274\2712\352}=L1.\273\201s\023\272Iz\022\272\205\023\n\273[\332\336\272\236\232Z\274>\230\301\270Qa]\275H|D\272\206Z\232=\254hB\272\177\326\016\272@\325\005\273\265`\r=\211\366\276\271\254\270)\275\364\346P\271<Y\317\275\0332H\272\304$\004>\363\030\000\274\030\233o\272yQ1\274\352\210\225=\003\270\325\2713o\023\275;\031\242\272\3322R\276\225^\010\274\332*g>\272{\277\274\345\371\247\272\273a\273\274\303s\372<\347\351\361\271\263Z\264\274\354\322H\272y5\272\275\321$\372\273T\004\336=\265|\314\273\265\\\347\272\312O\026\274]]\236\2724\354\330<\366\320#<\002\320\305\273\311\177\277\274$\366F\273\031\201\201;G\247\253\271g\260q\273\026\2774\2737B\337<\245\330)=%\204(=\"\022\t\274\354\\\n\276 p\202\273\212\020`=\362Md\272|\270#\273\232\355`\274\357\036\241=/\024]\274\3345\316=\250\326\n\273%\235\t\276Im\205\273\374\021u<\375&\370\272\236\337\202\2733\274\014\275\016\251\032=\033\250\312\273\360\300i<\327\376=\272\330\347O\275\255\241\033\273\355\017\374<n\271d\272\344\257B\273\253\350\232\274x\220c\272\230u\233\271:\306\365\274J\266z\271Z\\\235\274\367\242\205\273\\\203p=\037n\276\270w\267\336\272\255\215\022\273\014?\345\271\266\007\364\267\233\003\274\274\335\352\002\271b\262:\275\341\207j\273G\361\233=3\026M\271\247-\265\272\021n\364\272C,j\271\311@\335\270\005\260\r\274px\007\271\023\213\027\275]5\264\272\214\225J=\306\002\333\270P\220\036\272\306\227\246\272G\014\250\270\215\274\244\271e\240P\273\314\253\022\271\270b\036\275(\030\202\271l=2=D\246\210\266\235\362\024\272\275\037\242\271;=V\267\246a\336\267z`\246\271\343\202>\267Y\002i\275$\277\371\266\005\321k=\026\001\214\267d7\264\270beY\271\364;\202\265?\200>\265\225i\037\271\214\212\257\263\370\266\272\274\343\261\334\266GR\275<\234\370\301\267{\002\005\270\314\001\330\270\000\000\000\000\000\000\000\000\000\000\000\000\000\000\000\000\000\000\000\000\000\000\000\000\000\000\000\000\000\000\000\000\000\000\000\000\000\000\000\000\000\000\000\000\000\000\000\000\000\000\000\000\000\000\000\000\000\000\000\000\000\000\000\000\000\000\000\000\000\000\000\000\000\000\000\000\000\000\000\000\000\000\000\000\000\000\000\000\000\000\000\000\000\000\000\000\000\000\000\000\000\000\000\000\000\000\000\000\000\000\000\000\000\000\000\000\000\000\000\000\000\000\000\000\000\000\000\000\000\000\000\000\000\000\000\000\000\000\000\000\000\000\000\000\000\000\000\000\000\000\000\000\000\000\000\000\000\000\000\000\000\000\000\000\000\000\000\000\000\000\000\000\000\000\000\000\000\000\000\000\000\000\000\000\000\000\000\000\000\000\000\000\000\000\000\000\000\000\000\000\000\000\000\000\000\000\000\000\000\000\000\000\000\000\000\000\000\000\000\000\000\000\000\000\000\000\000\000\000\000\000\000\000\000\000\000\000\000\000\000\223\356\216\262|\255S\257\300z\304\264\274\2277\260Mr>\266\231\227\025\265\205\356\2456\273O]\253\254\r\203\265P\232L\264\330w\254;\215_\333\256A\325\260\267\300\314\200\265U=\244\273\376\2262\271\315\303\3729s0\207\271\255k\206\266\033H\220\271 e\375:\343\354\007\266\211\325\361\272\nV\016\2656\213<\273z\006\273\267}\370E;S\321\273\270\212q\253\267\312\326\313\270\334\001\352\271sm\373\266\350\223\237\270\017\363\277\271\177\224\215\272\250(1\2679p\004;~\327\350\265\303#\333\267\300\370\320\266\334\3032\275,\237#\270\254\2203\271\253d\001\273GrT\275I\303-\270\270\t\312=Fl\021\272r\3526\271\375|B\271\000CI\275\"N\t\273G\340y\273\205<T\273Y\277/\276Gt\203\272\364_q>\364)@\273U0\037\272:\260\245\272x\"\006\275J\242\034\275\006\0232=\250\031\222\274\364\231j\276;\221j\273%\n\225>q\214\021\274\262m\025\273\016\354\370\272\212\215\007\275\311/\235\275\300\336)>\276#\353\274\302\375;\276=]\260\274\345%Q>\033\215\037\274\303>D\274i\326\233\2738z\360\274<pl\275\302\274\303=An)\274\223\347\240\276\277\333\231\275L\202\343>b\212\222\274\014\201\262\274\351\037\\\274\211Mg\275\2248\232\275\310i6>^\2053=\272\003\247\276\326\235\006\276<\270\364>\r\271 \2757\374<\275\255\307\315\274\254\352q\275\374\310\234<g\332\253=\275\323\220=\026\221\341\276;\250\364\275\024\331\023?%\214\023\275`\310m\275Y7\034\2753;\264\275?\rO>$\317;\274\261\320J<\370\353\234\276\377\242\361\275ly\343>\356K\214\274PW\243\275\364\314\033\275\355\034\034\276|\2330>\321M|=\236\247C<2\233?\276>\321\002\276q\346\266>c\335\347\274\361\375\221\2752\307\024\275j\2176\276\027\257\261>?\031.>\226\255I\275\\\347\214\276\204%\244\275\230\215V>$\270\020\275\362\033\225\2757\256\021\275F\356\t\276\2522u>\233!\007>p\211)\275\213P\262\276:\337\021<\276\261\224>\tA^\274\212\205\256\275\024\361B\275\247\360\355\275\243L\225=\007\300\224\274fwE\275\223\304)\276\341\r\273=s;\217>z\006\330\273\024\035v\275\322L\355\274t\232\236\275FX\242\2734\023\353\274\227\016\241\275\005\r\005\276\367p\206=E\234\215>g\300 \273\354\263\237\272%\275\232\274\341\272X\275\232\261H=\240<\351\275\2077\036\275\300\304\300\275\222nZ\274N\227\250>\304\217\370\272>\306G\275\351?q\274\343\263\022\275\304\001+\273\307K\022\275\035\303`\274U[\246\275\257F\311\2750[\224>?\305\261\272\265>\204\274\354:\240\273\207\006v\274\014\240 \274U\362\366\274X\235Y\274\216\273\227\275\3200\323\275R\246\210>Z\326m\272\323?u\274\276A\266\2734\201\373\273u\333U\273\262k%\275\365\013\033\274\263\327\246\275\302\365h\275\303E\\>\2340\036\272naO\274EC2\273\340\343\202\273\254)\357\272&M\005\274\203\013F\273\364TM\275\372ML\275j\254\370=5\344/\270\205\370\207\273E\202\200\2712O\016\272\177\004\016\272R\242Z=\207=:\271\264<}\273\334\323\217\274\031\214\351\274\244\240\213\267}\251\014\273\003\222\267\267n\362\337\266\343\354J\267V.\030=\3737,\265m\230z\271\022_\t\272$\345\020\275\020\003\231\261q~\202\272\014\326O\265\000\000\000\000\000\000\000\000\000\000\000\000\000\000\000\000\000\000\000\000\000\000\000\000\000\000\000\000\000\000\000\000\000\000\000\000\000\000\000\000\000\000\000\000\000\000\000\000\000\000\000\000\000\000\000\000\000\000\000\000\000\000\000\000\000\000\000\000\000\000\000\000\000\000\000\000\000\000\000\000\000\000\000\000\000\000\000\000\000\000\000\000\000\000\000\000\000\000\000\000\000\000\000\000\000\000\000\000\000\000\000\000\000\000\000\000\000\000\000\000\000\000\000\000\000\000\000\000\000\000\000\000\000\000\000\000\000\000\000\000\000\000\000\000\000\000\000\000\000\000\000\000\000\000\000\000\000\000\000\000\004\271\036\263\350\376\204:ot\243\270n@G\2700\343\321\266;\351\250\266\343\247/\272\352\3605\261\332mY\271\213M\375\264\225\262T<\nO}9z\304<\271\324\326\032\270\221\030\204\274\316h%8\354\374\271;\336\233D\272\\\210a\272\001S\201\272\342\311\"\274x\262\302\270\367\002\232\273\037 \325\273\266\217\314\273\200v\232<2\021&<\212{\203\272\261W7\271%\025\261\271c\352\262\275\363i\263\273\341\253\322\273s\200\026>/\365\266\273u!\200\275\247=\360<M\222&\273\344\003\242\273G\270\267\272\016A\013\276\235/o\273[\275*;\t\224\341=O\030\337\275\203J\035\275\265\016C>\203\007x\273\216\370(\274\027\326\r\273\025\374\031\276&I\340\274~\274V=\355w,>\354\3045\276Tne\275\302\033t>#q\240\274\203\244\310\274 \202~\273zl \275\363\313\257\275\364\2042>\360`M>\344~\260\276\3116\213\275\207\265\203>\264\376s\275\267\216\270\274:KJ\274\204\262\273\275\032+\005\276\324\254\001?\023,\256=\027\242\341\276\032=\303\275}l\223>8\257\214\275\035\331\262\274\023\037\000\275\344f1\275\230\365^\276^\016\303>2\243W>\314\207\327\276\372\tX\275\177R\267>\030\246\375\275I\035\023\275\240\241a\275?zw=\257\310\263\276tV\362>3S\375>\253\023\000\277\235\203#\276Ko\305>\272\3249\276\217\261\000\276\306K\304\2754\3350=>\317 \276lM\314>\247\034\030?\3175=\277q\212\367\274\321?\226>\246\353\013\276\347\321\004\276pn\014\276a\204^>\323\243\273\275\303\027\016?0\301\237>X\251d\277\273\3268\275\001\032\276>\207\347\017\276\253o\310\275\334\314?\276\024A:>S{3\2767\271\234>\306\341#?\305o%\277\231L\321\274\354\013\233>\3263\031\276\334\tg\276{\260U\276\336`\272=\177\341\204=\013\022\014>g\255\002? #\032\277\033}\346=\013\266r>\252\315\r\276w\3261\276\321,t\276S\034\365=\335i@>\307)\224>\310P\266>\035\275\t\277y\033\214\275\372:\235=\004@\325\275U\266\367\275<\rK\276q\270\331\273\364L\260\275b\222O>6\354\243>~\022\261\276\030\274}=\316\324r<\223\351\200\2755r\320<\264\016\375\275\333\364&\276\024\274\202\276\022w\031\276o\361\307>\270\310\215\276\277\363Y>\'YL>l\240Q\275\224\315\374=\205\303\365\274dAI\276\312\205\037\276\244\255\'\276\254\031\243>t\330\206\275\2150N>\004e\211>~Q\357\274\236\372\005\276\031\240=\275\024\025\026\2768\311R\276\245\250\204\276\215\257\313>qF\300;\356\033\220>+\345\240=\373\355\002\275\0278\243\275\003\017&\275 &4\276%\2728\276:\3613\276\3028\214\275\206\316\226<\254\312\233>\\\210\203>\346\300\240\274d\352\200=\"s\267\274*`\005\276w\334\031\276D\344!\276\257)<\276\321\2252=\013\333\036>\230<\243>\020\272\261\273\360\212\356=\036\321\314\273\004\250z\275\356\237\332\275o\032\032\276a\344\331\275M\014\025=\333t\242\275\331S\267>d!\231\272;A\347=\216\367\005\273o\377\224\274\016\017\265\275\366|\006\274S\217\005\275\014c@\2741\220 \275]u;>\034\376\032\272E\366\205<\'\237\367\271\321\013\224:,\353\276\274\272R\377<\335\346f\271\265\220\270\271t@\227=/\300\256\275^\r\024\266\241\220I;\200\004\233\267\361t\225\272\376\362\357\274\2358C\272j\204e\267\023\014\226\271\242]Y<\342\232\277<\265\026\027\263\366\270\251\273x\311\233\265\000\000\000\000\000\000\000\000\000\000\000\000\000\000\000\000\000\000\000\000\000\000\000\000\000\000\000\000\000\000\000\000\000\000\000\000\000\000\000\000\000\000\000\000\000\000\000\000\000\000\000\000\000\000\000\000\000\000\000\000\000\000\000\000\000\000\000\000\000\000\000\000\000\000\000\000\000\000\000\000\353\341\303\261R\375\243\261\026C\017\267O\336w7\252Mj\263\n\310\275\266\205.\242\261r\223\373\260\230\021\007\265\223\027\224\261\340R&\270\036\251c;m\350\r\273\334\303\022;\016\340u\266\321u\020\273\362\253\032\273\016\275\216\262\365\031\213:\351\256\305\265\347\274<\272\322+\2709\246N5\274xJ\350<\253\372\373\2723\3351\274\314\215M\273\361l.:\353\363\266\272r\204\220\271e\372@\274\314\201\027<\362q\177\275;\206\271=\010\030\256<q4r\275\206\334\277<$OA\273\242`\374\273fE\030\272\335\203\002\276\365\031\203=\0074\020=\250?\254>\217\333\374<\223=\201\276\205y\\<%\3039\275J\226?\275\211k\002\274(\021\037\276\243\215P=\006\266c>s\326\303>As\232\275#v\232\276<\002\240<*\335[\275\343{\242\275\333\232!\274\264\246b\275\261\232\007\275\025\203\035>W\323\310>#9\316\275i\225C\276\3217\364<gx\267\275\231U\227\275,\034\004\275\377\377\237;\211\025\026\275\016k\211>\313\247\370>\247\242\225\276\031u\312\276\272\225\r>\377>\022\276\216\225c=\\X\257\275\t;\370=\270\014R\275\033\361\337>\'\244\315>p\024\312\276#G\245\276\033\264\243<\351\260\202\276\335\032g>u<:\276\024Z\320=e\325\201\275\2361\236>\211\313\004?k\210\004\277\'S\217\275h\324\206<\020\317\270\276$\026\220>Vq\\\276\271K{>u\003\226\276\337y\277>\026\257\023?^\325\000\277\323\252<>;k\007\276\305\201\310\276H-\204>,\033\243\276\375\203,\274\244\006\026\276\363:\254>\234\203\372>=\206\266\276nW\230=\336\341\355\275e\'\247\276]\233\357>^\342\322\276\301\030\220=\302\261h>\010/0>\324\374\006?un,\276\362\202\216\276\345\320\371\274\200\036\260\276)X&>\352&\255\276*f\021\275G(,>\344\213\310>\254\r\253>_V\272\276s\261\212<\345\326\230\275\366\236\340\276\200k\345>\024m\344\276\3278\017>Ju\304\274\017\352\014>\277\\\326>\227\370\367\276<\207\327>\207Z\017\276%\376\315\276\024g\320>\371q\362\276e\351\260\275\250\204\327=\244\204\023>0~\002?i3P\276\250\266O=\343\014g=\227\333\301\276\235[\252>Y\322\007\277\000\274\025>|\356?\275\021\022\346=\205\2504>9\025\343\275B\312\302=\260^\336=<W\246\276\343\217E>\356\256\262\276\2546\320\274\220\347\211\276\007+\246=\213X\273>\347m\013\276\217\273\330>\234\324[\275\317r\204\276]\007$>\246\023\223\276co\260\275B1\351=Ex\037\276L\360#>W\243B>\272\227Q>Mo<\273\231\234(\2768\342\204=\330\373\245\276\261\317\323\275\307o\215=w\271\270\275K0\n=g\003\254>\010l\204\276\254\324\303=\343[\004\276\000\307\202>#KU\276\'\017\026\2761\224$\274\364z\251\276\022\n\020\276%\250\253>\234nm>!\250\202>h\342S\275\256\265\234= \031`\276\252U\007\276\3254\006\276\366\230\346\276\314\027\246\275uh\277>\340z\377=\\\001\266>V`\207\275&\260\001>Z\220\365\275\325TJ\276\354~7\276\367\210\303\276\217\300\225\276\005\367\273>\231\016\322>6H\243>\017}\271\274\2170\310<\205)@\275\271\235d\276\366\300\241\276]\024H\276\rr\"\275\321\334b>\221\367\006?o\321\272\275/\253\303\273N\242\t>\322d@\274\235\344u\275\227\203!\276\032)\016\274VI1\273[iv\273/PL>\273\351\236\275\373P\240\272#\021\352=@E\t\273\243\356\341\273,\035\250\274\276)\375\273\237\227q\270\234\031\327\274PS\373<\262\033\021\2744\237\246\271\027%(=\265\367\217\272\331\031\345\270\273\312H\274\001/\354\273\211\337\221\267\376o\211\273\313q\242\273\303\364\301<\204\306\217\267\264\231\253;\235\r\"\271\000\000\000\000\000\000\000\000\000\000\000\000\000\000\000\000\000\000\000\000\000\000\000\000\000\000\000\000\000\000\000\000\000\000\000\000\000\000\000\000\000\000\000\000\000\000\000\000\000\000\000\000\000\000\000\000\000\000\000\000\000\000\000\000\000\000\000\000\000\000\000\000\000\000\000\000\000\000\000\000\317\302\240\271\256|\3349F+p:\257Z3;\006^\221\270Dta\273\251F\321\267\217P@\266}Go\271\306\r\264\2658w\322\273\005YZ<\230\007\274\273\236\002\371=\307\215 ;\357Q\177\275h\241\037\275g@\320\272\010\342\215\274 q\243\273\026\367\001\275\306h\325<\034C\234<\330\374\212>-\377b<\276\307w\276y\220&=\201i\330\274\370\216q\275M\311D\274\304\0341\276\337\261/>$%\273<\324r\014?I\363<=\327\325\255\276\361kT\276\r\341\004>\345\337#\276K\251\037\2750\0135\275\007\347\302=\360\361F=-\315\013?\223H\034\275\364\331\326\276]\354\003\276d\265#>J\r\364\275\227;\314\275db\016\275\350\263\023\276\224\035\020>\276\257\261>P\251\203\275lB\376\275L:\030\276\260\332#>Qu\240<\200\351\032\276\024\322\206=\350I\301\276\210\211\235>G\026\301=#F\200\275\217\017G\276\367>\263=%\023\205>\006m\253<2tN\276\371v\230=w\304\320\276\271]}=6\315Y>\373\342m<\031\312L=u\357\177\274\005\244\031>\001V\r>\333q\216\276\313$\232>\367hj\276c\025;>b\272\032>\241\2159\276CG8>&\340\200=s\035,\276\253\323H\276a\323\323\2756\333\021>\347]\255\276J\257\264>y\341\352=\311\366\016\276t\206\373=\346\002\n\2778\265{\276\361\032\217>\215g\200>\376\014\234\275{v\207\276;\246G>\3610y=\212\026\301\274\334\315\346\274\347\304\251\276 \"+\275\373y\271>\263Z\027>\274\317e>\203\233\030\275\257m\035>\310\274\003>\225\340\303\276sT\206\275\360\202\267\276ju\234\275\276\231\023>\357\336\211>v\336\203>\271\246\235\274\276~\000>\303\0062=a\334\036\275\312\205\037\276\037\024\325<G\241\243\276\303\326\221>-\332P\276zl)>+\326y>\362\034>>\371~{>\274\305A<\002V$\276\\T\240\276jg\331\276n\352a=\342\242\032\274\327\237\t>-\312\031\276\342\\\300>\211\202\315>\277\332\303=A\371~=\005\334b\276\367\351\256\276\211\262\002>\006\242\367\276\270\213\261>h\'l\276\327\203\023>\2173!\275\'3\217\275T\r->\035,\207\274\365e\314\276\333<\353>N2\272\276-\266\300>\3010\"\275\316W\301=d\014\211=\207\254\332=B:*>\217\207\371=}\031\332\276SrN\276(\341\207\276\360\337v=h\266\215<\350\0046\273$\366&>\312\020R>\272\026\365<\003\322)>T\272\032\277\224\356/>\277\030S\276\274\335\027\276\'0\022>\036\032\260=\357\245\275<\"\201\223=\220\231\246>@\265H=\203\220\031\277[\306\214>\235\200f\276p\205#=\337\030\261>\225\356\233=<C\010\276\371\2517=l\321\001>\2108\326=7\300\273\276\360\205\266=\r\261\247\276\357]\325<`&\236>,\362\013\276\327\254\241\275\'\ri>\264\325\266>\031g\272;\241a\200\276\322\264~\275\227%\313\276\357\026\207\2769\364\343=\267\017\241\276\300\321\235\276\247-\002?\236L\331>\377\222\270>\223w\000\276|\253\024\276\262[}\276\336\311\244\276\263N\206\274\272\201\234\276\366\223\312\275\367\346\334=r\\\006?\010\357\025>\363\353\n\275\372\211\323=\366d\330\275\304h\t\276\267&V\276\3565\223\275\350\032\336\274\323\336\244\275~h\267>\n\263\034\2753\351-\274\303\217\202>\005\037*\275\337\216,\275Z\003;\275\376w\353\274\224\355(\273\314\252\031\275\0223\232=\346Ri=\350p\215\273\331\366\007=\263\315\223\273R\201\223\274P2\206\274\017M.\274\016)\363\270\243\253\007\272sr,<|\235\021=\255t\023\271\222\007W\271\373\212\224\270\000\000\000\000\000\000\000\000\000\000\000\000\000\000\000\000\000\000\000\000\000\000\000\000\000\000\000\000\000\000\000\000\000\000\000\000\000\000\000\000HS\243\266\250S\324\265\243\271\250\270FtJ:\032\r\250\265\021j5\270\233\tZ\264\242 T\267Vf\216\270\254\326\022\272\357\314m\273\346\004\335\274\240$:\274\375\274l<\023\307z\273\331*\312:A8\341\272De#=\303+\217\273\t\016\203\273\311\244]\2731~d<\370\355r;\'l->@\0164\275|\277;\276a\3271\275V26>:\323[\275\2766\030\275<\024H\275\225\217\331<$\364\031> \222B>\343\366\232<\374L\221\276\360o#=\034\002\342={\363\322\275y\265\315\275\006\267\255\274\373\374t\273@\253\220=\244\232\242>{{E>\334Fm\276\026\037\037\276~F\203>`\035\014\276F\302\223\276\352\323\003=t\355\250\275,\376A>[\356\212>\255>\307=+\006\277\275(K\241\276nd\323>\343Nb\276_,\225\2763\027\226=\251\254~\276;\303)>\373\265/=\261\333Q=\036\203\357<O\250\236\275\233\364\266>\036>\203\275\272\266\250\276\002\370r\274\227\234\304\276$3\253=\030\343~>0\256\260\274\243\331\253\275\345\217\247\275\262\351\335>\261\223\t;\245C:\276\371\307\246\276\330\035\004\277=\016\271>\300\252\263>\300\025,>\267\265\024\276f\317[\276~\371q>\032\343E=hI\026=\3059\201:q\203=\276\307\017\300>\374\007\267>9@\022\276\371\363\332\275\343I\343\276\325\306\255>\366\225\337\275fH\256\275\201 X\275\360\031\277;\276W\033=\017\245\010>\314\207\260\276\033\303 \276X)\262\276\237x\000?\023\'(\274\263Xo>Q]\207\276\335ja\276\301\342\003>\374\355_\275\266\020\200\276\270Q\305\274\250JD\276\326\234\246>\206j\306>\263D\'>y5\247>\220\236\223\276\223\300\330<f\n\273>\225\333\321\276\361\377j\275\264\036\352\276\234\220 \273\016\367^=\303\216\342>\340\372{>W\216L\276\227\013\031\274,\351 >\364\272\350\276!G^>\026j\271\276\204\324$\274\004<b=\242}\270>hU\200\275\273w\204\276\022\275\355=c8X>\207\253\000\277zG\347\274\346\367\003\276\016G\310=R\233\247>\3316j>\035M\223=\033\341H\276\225\262z>\246\262\210>\201\003\350\2761w\n\276\374i\215\2769\037\206=^\242\346<\000H\304>\236\3772>{\354\331\276\033\355R<w]\214\273\223\250I\276\255\325\264\2745m\202\276\345\343*>-PY>\333z\254>\312\221\303>E\366\005\276/\265\301\274z\274\272>\313\343\371\276\351\'\313=\271\347\356\276wgs=\367\te\276\026\341\332>\222@\211=A\211\211\276\207\331\354\275RAD\276\350\333Q\275\351\342\252>\236\363t\276K%\206\275\203-\364>9\360]=\254\212\362=\357\215\000=\226\274 \276I\301\273=\343\375t\276\016\013M>\317K\267\275\310S\000\276\365\033\353=\247B_=h\260\323>\303\374\302=D0\203\275O\303\235=\356\332\014\276\306\364\253\275\371\347\353\275\005[\312\274X\253\200\275\022~\307\275@w\341>0\245\370=\317\371S\276Yj\272\275\t\315m>\317F8>\272\322X\2758\2571\276\227S&\276T\367\222\276\234\204d\274\343\302\347=\030\252\r\277\\:G\276\352y\014?\2539\211>`\222\271=B\244\214\2764\305\251>\206\216\241\276d\003\354\276?\271e:\346^\245\276\310\364\261\275A\322\000>%_Q?\340\224\305=2\261\350\275g\215\">st\\\276F\331\255\276\005\237\027\276\355D\233\275:\376o\275\260X\363\274\332\004\361>t\324\t\275\216\0321\275\203\262\260>O\247\262\275[V-\276.\017\217\274\005\2561\274\340\327\201\273L\265\235=n@2>u\270h\275\0213:\274\241\364D=^\'\361\274$9F\275E\223\243\271\376u\361\271pi\025\272\267\262#\273RO\210=\357\000\215\273\037\354<\272v\245\017\274\204Z\013\272\000\000\000\000\000\000\000\000\000\000\000\000\000\000\000\000\000\000\000\000\000\000\000\000\000\000\000\000\000\000\000\000\000\000\000\000\000\000\000\000\204\030\305\271\204\375\345\272vX\024\273K\344\261<\n\356\256\272\022s\363\272\021\353\224\270\312\210\003<\026B\326\273\305\273~\274\246\335g\272I%:\275\022\372\367<\262-\223\274\362\025\234\273\360\203\337\274`S\370\273g\254\305=\346\363\362\273\0262}\2740\215\273\273\242\364\232\274\211\356\177=\230U\232=6\304K\274\n\233C\276e%}\275\004\025\232>\226\2716\275\'\214\325\275<\356\274\275\235:w;jV\301>\t\\\260>qM\347=k\214\022\277\324\232\356<\347\306\001>\322>\\\275\206d\215\276\247\"\000\272\364\326\033\276\t\250)>\006\367\370>y\355\273>\253/\235\276Y7\354\275\360\274\255=Y\331C\274\260O\004\277\366Y\304=\337\354\201\276\364\214\266>\335\000=>\013n\014>\361\366\215\274\270\356\314\276)\252\257>C-\007\276m\263\240\276\325\010\202\274/\242\215\276\033\315\274\275\327c3>-\366;>\262\275\347=\337/\302\274\207\321\226>O\241\'\275\001a\242\276\377\314\210\276\211\352\014\277\335\372Z>m\212\331=\260\243\204==\324r>#\304\307\275S\270\352=\233\367G>\234\235\210\274\264\364\321\272E)\262\276H\010\247<!\277\251=\306\341\311=\323:\205=\251\020I\276g\360\205>h\241\242\275\010O\306=\030\361<=\n\327\211\275\247\350\346\275C\003Y\274`.g\276r\360\210>\225S\216\276\302\025\270>,j\322=2r\241\275=\t\365=\270\237f\276\323-\023>\372\235\177\275\227\227\004\276l\271\373=\223\001\352\275\277\"i>\006\t+\2769\355\254=\371\317q<Z\353\037\274~\245w\275p\030\036>\370\231\t\277\222\002\031=\017\222\022\276\356\331t>4\226\021\276$\024\345>mf >M\357c\276\215<\266>\003#\002\275w\360\307\276\244\335O\276P\323\270\276\010CG>\334\233\270;\016\373\375>x\271\262<B\220\242\275\356+\305=\210\215\260>!\220\346\276TWC>n\220\332\275\221&\246\275\236\216\270\276\316@\331>I\235\326\275q\371\345\276\037\037\251\275\263\033\263>GE\263\276\251\217\224\276\277\002\007\276\201\335?>A\310\260>\311\265\006?Y\254t\274\372\360U\276\270\035\247=\000\230\002\2748\261\342\276u\037\315=\007g\332\276\306\345l>\207\253\353=\300\256\022?\364\272\252>%\345\204\276R\314\217\276\317\360E>\n\177\343\275s\177@=\'1\223\276F\034\216>\314#L\276\200\364\222>\327\272\231>\357\027\256\276e\331\376;\035Bx\276y\016\261\276\217\326\336=y\355\271\276\357\225\311>p\021\177>\035Tm>(G(>\333\270\236\275\272\376\004\276{\340\332=5\212\271\274\200\314\204=$\252\254\276\254\332<>\3147v\275\034\353\332=L\276\244<m\324\227=M\307\200\276\013;\214=\331\036\302\275\013\374\254=&P\266\276$+\274>$\264z\275\236v\030>\370T\313=\320\014L\275\270\376,;\322k\216\276X\000\266\275\254\214\026>t\346}\276\361\375`>\212g6>)\202\223<\256<\253=Q\257\253\275~\264U>\025\330\210\276\022\254Z>\235\337z>\024r\242\276\251) >\312=A\275>MD\276cY\210>\236\360\005\276^\023$\277\232\366\223\276\345\033\346>\004\326\270>\252\3143\276\306\023H<D\222\265>6DT\276:\274E\276\205\332\317\276\264n\363\276\036\td\276\215\254G>\273\257F?*\351\307=\353\237{\275M\306\002?\2458b\276,\335\311\276=\305u\276\212\375\272\275\232l\236\275N\360\023=g\241h?~6\001\276\327K\207\275H\277)>N^\354\275-\312G\276\300\177\007\274(P\203\274r\256H\273\302e\324=\342\0010>\352w?\275de?\274\036\033U=n`?\275\346\037M\274A\021\225\273M\354\255\272\2153b\271\337\337H\273\304\340\315<\264\221W\274Cy\300\271\221\3654<\355\253\177\272\374\t\251<_M{\264Y\342\215\271\331$\r\265\340\000L\272\364\036\260\266\323\370\330\266\311\314Y\274\236\340\372\267\233\314\314\2731/#\272\3064\277\272($\346:\357,-\274\304\266\220\274<\300\273\272\353$f\271\310`\235=O\205\350\273\346\360!\275\036\257\213;\014)\354\274\"\351\241\272E\360g\274=M\266<6\301\340\2740R\323\273\275\360\014>>\342H\274\017\036\227\275\035\202Z<\223>\215\273<\206T=\346\347\261=.-\276;\205\336H\276\266\277A\275\246E\305>\335\203\310\273\264\036\224\276\251\332\014\276\310\351\006\275\364s\323>\240\361\323>\335Go=\330\267?\277U\305#=\017\246\254>\374c\017=\306\236\301\276aQ\234\275~-\333\275\217\026\364=<HU>\352\t\217>gC\304\276\260C1\276\203\030\231>\201\027\021>\341\222\235\276b\220{\275\360Y\201\276\267\000\017\275\347\037v=%bJ=\2678\213\275J\274\243\276\226o\242>Du\213>\327\013\032=\210\221\256\275\270 F\276\033\036\010=\233\003:=\003\021\326=}\234t\276\322\371P\276\276\241!?Z4y>t&\254\276\300\311j\274^C\376\276\220\204\014>\377H\341\275s\202;\276\322\325\020>\320\230K\276\314\350\300>\370\357|\274\347\312\271>m\234\223>J4\002\277\246\311\255\275\303\210\005\276\017\3607>\3275\271=^\'\362\275j\000T>\000\',>\2221\273\275\340\'4\275R8x\276p\030\231>\324\377\330=\005\t5\276\231\316\r>\332xa\276>J(<\254\2267>\247ZK\275|$\244\275li\244\276\036\246\357=\315\307\321\274yju=\253\\\003>\265:>\276\264\010\305>Fs\010=\331\277\342\275\267\355{>\017\3457\275p\320\023\276\016\'\266=\243\365\244\276\335\277\355<\234\022;\276\367\006\317>\3612r>F\031\237\276`\200\372\271\261\035\236<\300\234\024\275\235\021\214=\201\350\275\276\322G#\275[s^\276\354\024s<L\265\254>jRf>S\242\215>eD\025\275\364$\214=\037) >yv\324\276\346\337\035\276\370\016\342\276\330B\261><\032L\276\030(\314>\3522\223>L\231(=\027{\367\273\006\252\030>\237}\211\276\330\216\205\276\221\223\013\277\241\032\340>|\013/\275!zV>Do-?:(\254\276\256.4\275\3337r=\244\033\030\277\005fG\275\213\347\353\276$\375\231>\247\226E>7\313\201>\203\246\230>\311\371(>^\332\357<x\346\222=\244\021\202\276\030\006\212\275\277\203\275\276\327\270)>\343\357\242\275\233\333(=\370y\252=\214cx\276\200hg\276Mu\305>\330\217z\2701\341\264\2755\2045\277\314\243\364>\273\230\n>?T<>\245u>\274\244\032\272\275\230\201u>\003\203\004>\211\270#\276\365\r\006>\\k\016\277N\364\335=\332lP>O\031\334;\312z\207>J\232\233\276\356>\230=\315L\350=y}\233\275\246\276\221>\363\263\324\276\256\006\201>f9\213=\031\004\206\276\212@$>\205\260\217\276\215\303\'\276\376\355\244;\364\177\211\274\250\"\331=\331\216\205\276\342\005M\275AKw>=\267\204>\257\370t>\333\257\221\276\t\037h\275!\365\270>\000\225P\276Hg[=\273\220\002\2770\227\200>\035(\334=\206\375,=\013\211\n?5\033\014\277\357^V\275\004]\032\277N\200D>\234!A?#\031\017\2771\272\032>.\230\213>v8\031\276\036c\320=I\234\032\277\371h\013\277\344\366\350\276\322\336\302=,\013\244?\366K\262\276r\000\020\276\255q8?\371H\332\275\237\347\317\276\334\264\213\276\223%9\276Z~\332\275E7\013>\2025\200?\334\307{\276%\347\014\276\337-\257>\226\360\004\276\237\215%\276]<\254\274\367\032\316\274\216\323\304\273\230\270\230\275I\266\227>k\361\026\276\346\007\231\274\312iQ>\253\241=\275wo\006\274\257H]\273\376\327%\273\226\244\214\270\353H\034\273\301\300\330;=\r\200\274L\236\241\273\247\037\004=\336\221\344\272\360p%\2667\232\373\267\366IB\267\264\177H\271##\201\272kd\202\270L\232\323\265\247\275$;\300kS\267\206\200\237\272C@\013\272H\027\210\270\275Zw\272\232\351\025\274c\"\226\274\356\277\266\272\330\003\313\270\311\327\267=\347\236\262\2731f\\\275\263\262\034<\261\241\236\274|z\021\275\370\205U=\005\232 <\201\016B\274o\323@\274\034\323\'>\354\245\016\275\274\375\371\275\374G\030=\317\t6\274(\262\232=6\033e>\372\315%\276iSj\276R\rk\275\355S\351>\353\202$\275\177\343\225\276_S\253\275$Q\326\275\243\006\202>\317\275&?/\020\211\276f\371\021\277Q\311\234=\237\300\346>\265\272\014=\245\237\341\276\343\335g\275\330\256\220\276F!\336>\216\273M>\272;P\275\003\212\256\276b\316\215\276T\014\222>_\234\274=^\341\211\273\356[\020\276xe\221\276\213\274\026\276^U\007>\277\201\354\275\261\363\224\275\211\360\200\276\265\360\230>x\201r>\223c\260>\301\032\036\276\324n\r\276 \340\330\275\321dH>\t\362\324\275\270o\321\274t\224t\275\203\263x>\322}\336=N\272%=8\250\007\2769Z{\276ru\242\2752\206\346=n\315\316\274\207A\360=\270\273J\2761IE>\031\362O>\325\314`=\"-V=d\232\320\276\312\276\010>\336K\313=r\314`\274\324tf\275>\235_\276\2255\225>B6S>\351*\262\275\335/\\>I\023h\276\212\273\204>\363\375\"\276-\236\234\276\010\221j>\241@\305\276/9\220\274d\235\t>d\200\203>\257\313q\275B\003!\276\203\"\261\275I\352\263\276\212\025n\273\302\021\321>B\312,\276\267\234*>\317J\350=+y\r>\025\376\346<\317\311*\276\357\224I\273.\203h\276j\2445\276!\002\203>\037\227k\276\270X\016?\023\007\017\276\367\336\324=\206\226\312>\345\252A=\321\013\374\273\225#\000\276F\245\005\276\223~\325\275\231\342\376\276\245Hs>\020-;=M\202\016>(\217\200\274SY+>\213d\306=\312u\222>\030\345\032\277\253\221\216\276\275\363f\276\232\017%?\002}r\276\330\204*>\022\264\240\276?/\032?\247\215e>\302\220\004?e\254\315\276\227c\376\276G\227\345\276f\360\327>\0051\017\277\274\205\350>\276z&>\221:[>[\353\240>\275\361\222>\242\252\202\275\230\257\352\276\350\335\032\277\264l\253>\256\347S\276\362S\256<\3565\271>\313Q)=\235\244\330\275]_\033>\261\000\"\276\252\022s\276M\302F\2770\264,?u\345\224<p\025\367<\342!\226>w\235\005\276\301\013Q\273\367\203\320=\360\266\261=-\264\001<>B/\277\255c\230>\376\321\372\275\364\017\035>Cu\306>o\025\207\276rY\201\275\335\225\210>\027^\005\276<\364\210\275v}\033\277\306\346\271>\3347\217<_\264\305=\177i\212>8\342\342\276!\351q\275q\262\240>\032\214\366=I\247\333;\275\212\260\276\257\247\202\274\273\021\250=\003\210\216=\320\252\007\276\016\363\253\276\026Lm\276}\362\270=cZ\324=fW\337>V\027\003\276O\030\244>Bj\r>U~\205\276z\355\373\275{[\341\276\327\262:=P\344\317>\334\266\035=\242\352\247>\031\354\021\277\254\334e>\320|\271=\000\302 8Kt\036?\321\025\016\277[j\302\275d!\242\276\236x\216=\326\325)?v\252\330\276\035o\\\274\316\251\246>\351f\214\276F`\332>\rc\274\276QR\t\277\320\003\364\276B\335\250\276\tc\303?\n\320\306\276T\371\210\275\206\233\341>\262 i\276\247=\271\276\240\020F\276y\023\016\276\366\221\217\275\255\023s\276\004\376\241?6}\322\276s\272\"\275q\021\265>\251\354*\276p\017\024\276e*\306\274n\0210\274\tLu\274\202\033\303\275\342Z\231>\323>C\276\263\337\303<1\255o>9\317\235\275X\023\307\272\021;O\273\223\241\245\272\001\266\366\2710\251\017\274*I\234<\237\020\031\274\374\272\217=\316\335q\275\"<\272\273yin\266\320g\022\270\204:\323\2678#\247\271dQ\226\272n/\241\270\204\312\367\2659\020V;2\362\220\267B\032\327\272\255i\300\271\273\232\327\267\250\022\332\271@X\007\274r\257\216\274!V\254\272Qgd\267\227/\262={\3717\273\351\360f\275\214\364;=1Y,\274\014b\005\275\007w\266<\030\3327\275\\I\207\274\003X#\275<\216\206>\363\342\314\274-x%\2765\274\201<\313\346\206\275#N\336=\250\312\271>\3134%\276\312\316B\2766\014\241\275d`\272>\227\324\n\2765\342`\276\222<\026\275R\236\005\276\214\243\317\275\021\004\256>\222\232k\276\002Ub\276\276 _\275\243\347\320>\242K\202>\004\267i\276F\366\252=\300\330\235\276\374c\334>\315\254B\275\361?Y\276\313\272&\276\003\013f\276\370q\202>&\2537=xQ\021>\336f\322\275a\r\357\276\177\n\007?\233\257\005\275\250/O\276m\177\005\276f*J\276\'f2>\216\365\004>0\007\232>a\270\035\276\251\204\240\276,\223P<\301J\202\275\230?\373\274\\\007e>K\337\206;R(\004>\327Ed>\2764\373\274%\'\277\275\331\365J\276\255\004\035\275M\342\216\276@\240\242\274\032\250\314>\007BK<\272B\233\275P\352F>Q+\311=\314\242\220=\305|\241\276 )\200\276\236R\005\277\2119+>\025\345\334>\344]\200\276\374\021n>\250\314\216>7Q >\031Y\250\275\'\346\010\275\311\363\361<\361\302\374\276 \354\\:c\215\202>\021\036\026\276pp\331\272\232\324\216>\372\334E>\261\204!>\373%\364=q\\\241=\275 \013\277\"\230\356;\2232\211>j^Q\276z#m\276\0034s>wa\343=\212_\216\275\246\361M\275HCF<\025\225%\277v\327\257>\263\376\356>[~\252\276\362\347\220\276L;\266>:GQ>\023\313D>\222`\303>\"Uw\276\304~\232=\210\006\212\276\326=\014>\243\353\006\276\036\275\210>\352\260\372\274\327o\302\276\210\267\335=\227\001\020?<J\274=\326W$>:\240t\277\334\243\360<E\346\247\276\370\205\333>\236es\275\276f\035\275co2\276\016\006o?&\276\023\276\364\003\264=\240\370\027\275\371\nK\276\355\301\375\276k\260\003?f3\313\276\267s\267\275hh\324=\303\034\261>\335A\340<\312\261J>f\367\206\276|0\223\276^e\346\276\331\317G?j\275\370\276\003\272\000=8\333\353>FZ\025>>\256:>yTm>\314\r\213=\240\263\370\276\233\373\362\276z\244l>l5\230\276\306\325}\275<V\253>\023\202s\276\020\271\212;\302zo>\261\356.=\246\365\n\277\311\340\373\276\337R\266>\013\262\215>\031\274\306<$\272C\275\333wa\276}\317b\275\337\001\220>\275\345d>\005\332\332\276*\222\006\277vp\352>\264q\265>\321]&\275\342LO>\035\304\347\276\203\207\017\276\331\374\257>\307\367\373\275IoJ\276\246\260i\276\023q\364>Yv->\270\322Q\275\310[\026>\262.\240\276w\022*\276\235\2505=\03081\274\252\003\327<$\255u\276\341\255\323>\037\352o>\031\275\n\276\001\354\236>=F\325\276\3033\351\275\313/)>\354\224\360\274\014\333\332\274\226$\325\276\351\361\201>\316g\205>.,R<\353x\017?N1\331\276\240\016C\276y\014\216\275\250\312\007\277\004\030C?[\355\353\275p\037`\276\232<\242>\275\n\272\275\356.\320>\315\245\256\276\347\324\344\276k;\263\276\377\205\330\276\273\362\366?\233[d\276\341\306\'\276L/\262\274\307\210\273\276\001\206\270\276\311\022\001\276\323\025\262\275.!\002\275\230\241\223\276\373\216\326?\377\034\004\277\347?\252\274}\207\361\275\367\000\003\276\261\3519\2766\312\025\275\363\307\341<\203q\342\273nv\360\275\243\354\365>\014\351C\276\200\311\222<\252\366\246=M\245\226\275\030},\272\007\254<:z\034+\272\344u\020\271&\364(\273\361+\027<\327u\322\274\205\276\227<<\352`<\307yL\274\006o\276\267\265\356\250\266\276\253\333\267\322\\U\271\270\330\021\271\232\307\221\270\311%\300\265L\021\240:\367p\r\270z\302<\272\205\324;<\030\235\3149T\014I\272\3510\214\273\332i\377\274]Ql\274\374\320\350\270\305\357\362=\364[F\273\021\020\235\275\n\340\277\273\323\246\211\271-kv\274\207\035\253<\003\271\032\276i\017\354\274\006\014\035\273\3339\360>\310tz\274\027\353\212\276\363\311\240;\320\247-\275/\\\177\275\331\026\277>\222\233\334\275\351\255{\276\006h\252\275d\233\341>\021\237\037\275\325\021t\276S\021W\276\276\316\241\275\356\361F\276N5\245>\021\006\230\276\262C\257\275]\246\033\275hw\374>\216I\252=\037\236\240;\240\017.\276\026\334*\276\234\032\016=X\331;\276\213\204\336\275_v\016\275\004\3570<\262\206\021>\321\226m>\027\362y>\331f`<\262\262\335\276\352\032\035=\315\244\247\276\235\272\006>\000\035u>\210\324\005\276K\347[=A*:>n;n>\332>\367;\235M\306\276\037\201p\276\321\262\033\277`\036\n=\023%m>x\3656>3Z(>OR\021?,\240?=J\356\032\275\204:\232\276\236\351\351\276\346\016\366\276\016\357\005>\322\364D>\221\275U=\312\0168\276\342@\312>\304\226/?*\340\217\276\010;\270\276\225\365\346\276\035N\004\277q\023\314>\317\245%>\220D#>\210\264\231>\016\342\352>\226\033\005>\364\301\255\274\231\rD\276\005l]\277F\212\330\276\360 \020?\260\345\210=\255\2579\272\2167\276>\371WT>\233\303\225>\237\245\230\274\263\326\357\275(\270)\277\023\310U\276 \306\017>\352)A=\2131\365\275(h\255>%QE>5\010\321>\357m\301\276Q\307$\276cCS\277\341\377\210\275\256\0017?\303^N>\217;B>\037 _\275\241c\026>\020\364m>+\352A\275)\222\312>\233\240\201\277yx\231>\300\022X\277F\272\024?\213\211G>\024\343.>\016\033G>\240\207\212=\370\367\347\276\367\022A?\3247\016\277\2261L=Kpo\277\214\335{\273M:\217\276\211\260\016?e\361H?\210*\246=8\3649\27796Y?\204\354\r\277\321l\202>Z\331\336>\365\260\256\276n\360\'\277\331\345\320>Q(/=\255\325\223>=i\'\277\207h\224>7\025y\276S?\225\275A\246\373>H=\205\276\342\3177\276\270\260\337>\227)5\276\362\247\274>kQU<t\371\351\275\035\231\333\276:\005\314>/\267\032>\002\256L\276&;\325\276\"\242\221>6\rH\276\214\001\002?\306\330u\276\226\311^\275\232F\245\275\001\352\016>\3112!=\355\241\245\275\325\236\245\276\246\376\t?\003Ts\276\0170\231>%Th<\377;s\2765E\247>\240K~=\200\376:<\352\215\271\276$\226D\276\'\377Y>CV\034=\204\206\001>\372\2534>\205\022?\276\205HB\276\255l\313>\307m`\276\275\2752\277\316^\024\2765\017\262>\365,p\275~a\023?\325\345\325>\032\244v\276hA\276<\247\271\333\275\001\263\210\276\266\332\360\276\371#8\275_P\232>6\361Y=\251y\253>T\327\225>\t\364l\276\350P\177\275%\321\205\274\243\306|\276\220?\035\277 \037\302\275\037\331\231>9=\235>{=\273>\261b\232>\206\330R\276\225#-\276=\335W\276\322i\001\277s\362j>\350\377\266>\354\025o\276Lx\375>.Fp\275\252f\314>\315xV\276\373\370#\276~8\221\276V\270\007\277(%c?x\312V\274\321\321g\276\331\273\343>\300\352\235\276?Zt\276\337\216\363\275\245G\263=\242\t\027<\330by\276P\336\225?\215\271\003\277\014\263\322\275\360d\320=*t\032\276\264\361\006\276\021\364\"\275\221\0200=;|X\273Y\2225\275\t\375\250>\300\304\226\276\000\367}\274\306(L>\377\"1\275a;\374\271\234O\367;\212\336O\273\316\250\206\270j\302\271\272\375\031\235;\262ie\274m\n\263;J\305\304;\263\'\231\273\277C*\265\342\275-\262\306\250\224\267C~\277\270@\223T\265\212\031[\267\315Gb\261\326\256!;e8\261\267\3423\030\273\020\036\3279\001\024S\271\213\372r\270\273\315g\273\216\314?\2753\027\254\274\324\234\220\271#\342\363=\315\000\276\272`\374<\275\334W\372\273\026xv\273b\375\246\272\243a+\274T\3177\276\r\323\337\274\211W\034\273\336N\365>\247\223L\274\246\350o\276X\023\355\274\222\236\357\272\334\3405\276\244\035\206=o\246k\276\3147\326\275{\262\217\275\355\204\035?\324\031\301=\016\261%\276\032\224\020\276\374\304\004<l\002\217\276\026\374\020\274\356\375\352\276\302\275)=?\234\250\275\203\010\013?xm\000\274@\216\305>z\351^\275\322\237\241\275\246\211\017\277\353\230\215\276\225\217\246\275\tv\207=\t\n\256\274`\031\243>\203)\217>\345U\321>\230\305\213>\234T\026\276Zj\200\277\201\310\276\276\357?7>\005\003\250>\251\270,>\360\373\020=\313\224\327=\022\323\335>U\242>\275v\314I\276T\276\233\277\333O\221\276\320\017\267>t\207\334=;\267\224>\354\206\372>O\334\244>Co5>\032/\004\276\361\030g\276j\301\022\277\nu\330\276D\253\364>\255\314\003<\223\223G>\014\375\023?\351\302\275\273A\022\310=\032R\262\275S\020\024\276wC\037\2774\033\351\275\350\021c>\363T\024\276\376\302\214>O\372\277\275\366\336b>\027\330\371>~\014\227=\367\211\306\276\240\215<\277\250\366\203>\264\313$?6\001\274>\365 _\275\362$~\276\241\357[\276|A\231>\371j8=\270\335\004\277%}7\277\205\363\"\276ES\033?|\277\030>\027\225\305>\334{\252=l/\341\275wgp>\274\345;>2\211\275=\341\206&\277\206\026m\274\2207\224?\016\305\306=\263\3770>\335\276?\277\'\\\250=\315\207\276\276\267\026\320=\005\255A>f\261\336\276\035\243(<*\224&=\346\263\222>\234\037a>\325\004\207\277c&\014?z\002\301=\336\257&\277\206\251\200?M\351\013\277N\345\013?T\362\034\277\314\341\372\275\303\267\204\276w_\261<\346\311\202>]6\272>\010Ii\277\376E\000?R\344\032\277\357iH>\361\003W>\037\026\205=\364,\303\276\240\274\372>\241\035\303=1{\256>D\374(\277\270\210#>Q\227\232\276X\020\001>\264W\302>I\002\302\276M\262\230\275\272w\374>\332\244\225\274\002\375\214>\246Z5=\001`\373=\310(\240\276\334e\313\275\002%\023=\212\344\377\2760\307\025\276\321-\347>l-\324=~\251\231>\216\312#;\226\0037\275WT\252\276\034u\035>\306W\001<\214\000\270\276Q\244z\276t@\326><\3331\275\323u\342>\265\260\025>\361\024\\\276@}\217>\322\217k\275\355\2600>\342\203\301\276\334\235\312\276\r\275J\276RH\217> \006\273>?~[=\033\207\017\276)\007\204\275[gh=BT\013>\004\350\334\276\024s.\276\341\226\024\275\222\204\212>\022\316\246>t\253\330=W7\234\275o\202\037=*p0\2777\322\304>D\366h\277\244K\215=\rC\362=U\330\002?\235X\345>\035\221\241>\007e\236\275<\353\245\275\242\027\006\277\006\350.>?y\252\277\231\217\314>\347\310\363=A\301\374>\376\357\003?\023d\346>\3726V\275J\303\333\276\030\024\241\276 dD\276\203L\245\277\"9V?\216\333{\276\016kY?\201D\307>s\2247?k\036\216\275\037\302c>\0206\'\276\334\234\361\275\033\001\234\277\3033\312>tK`\276\373\rO?r\244\265\276\264\271\371\274\346>:\275k\375\301>V\302\323<+\323\212\275\2715\244<X\300\216\276\252\244\212<\0208\033>\360\324.\276\336\325\251\275\212\316\030\275\344\323|>\346Q\251\271\220z\026\2755\265Z>l\027\240\276\205!A=[\244\213<4\025`\275\255\276\006\272]6\317;\241\261\350<H\\\357\270\302\356C\274\014\251\257\273V\\\240\274k\354\262<\261\346\210\274F\r\031\273\367\005\230\260\372\267\2008\3372\362\266\225\223\255\267\216\262\n\264\275\"\366\265\244\032\302\2652TK\2672t\273\266\214:O\267\2210\362:\021|\021\270\323\363\027\270`\035\005\273\244\020E\275\327FI\273A\376\027\272\260$\235=4\373W\271X\303\310\274E\001=\273\354\254\245\272\270m+\272\377\251\362\273\307~\375\275j-\356\273\202\203[\272:\007\232>\214]8\273\204\240\035\276\312\320\'\274$\277\214<\\\265]\276\002\2038<@|7\276>\212\022\273\177\211w\275\210;\001?=\376|=\214r\001\276\376\321q=m`2=<\350*\2774\013\213\276\014\266T\276\023]\010>\307\365\361\275\271y\227>\210\n\243\275\224$P?\310\373\202\274\\\366m\275\236\214x\277\205\216\235\276:\314o>(\311\205>}\322\310=\300\202 >Q\033\221=#\025\010?\236Y\255>\251G\356\275L\357\233\277\\r\235\276A\311\001?\315\360\010\276\360\235\002?\356)v>\317\301.\273\321\264:>O*\230>\315\2577\276y\334q\277\260g\253\276c2\247>\342\220c>\007\225-=[rB>A]1=e\273\254>\210g\215=k\324\362;\007U\323\276?0S\276\313\000\260>>Hq<k\007\327;\226\253\326\274V\363\226\2750\010\216>\311\307\244=u\n\231\275\016\222\264\276\007\240\311\275}\252\332>\020\\T=s\352\352=\265\351Z\276\217\244\245=qM{\274a\361\221>\366D:\277VDk\2762#a\276\276=\024?\243\335\026>{\265\224>RO\256<\330-f\276\310y\241=\353\254!=\221\022<\277\260r\252=\3268_\276\250\2330?\261F\231>*\233S\275\324UN\2762L\305=\330\223!\273\233\231\002>\215~\226=\231\263\371\275[\3029>\2430\t?\260\236\377>\310\323\313=\355\006\237\277\333}A>\035\370\256\276\355_\005\277\316<\225>T\352W>9\347\337>\202v\250\276\316\323\227>N\275\356=k\355\226\277\003\306\017?\007\016\353=\2007F\277\3413\036?*\265N=\003\213\212>\3224-<\000A\250\275\333\212\210\276\337\250\355\274\222\252\231\275\315\034\216>CK{\277\\r\310>{\377\221\276\367\320z\2765\265\014?\014\234\225\276`\247Q=\327\346\247=\005b\357>v-\206>\316\r-\277\026u\014>H\361\217\276 K%>\257\205\203>KQ\362\276\312\270\310<\245\024{>.\375\242=\307\221\006?>\352-\276__\335>\006H\250\275\253X\003>\354\245M>9-W\276\222<\303\276\314\220\213<\253\336Z\276\025\262\216>\207\356\237;\265\364O\276\350B\207\276\267`\220>>oY>\3669\006\276\253\273J\276}\206\227=\340\272&\275\345\025\207>\314\200\331\274l\t\252\276\'\370B\276\266xd=\253\376\\=\321b\374<\332\223\231=@\332\217\276V\356\220=\0331\013?L\032\322\276\367\341T\276\266Kc\276\225\312\017\277\350\321\302>\"yP=\342\361\001\276\3365\223>\373\005\307>8\242\327>[\232\001\276\233_\014\2763\311\216<\235\n\033\277\220r\350>\223\367\223\276\220\001\235><l\003>Ec\340\275:\013\271>\226\372M>\354\022\037\276\\m\355\272\255\272@\277\362c\305>\220\312\306\276FU\334>\265\334\302\275\314\201\027>\266\354i>\361\375\377>R\003\024\276T\275\256\275+\363\244\276.\002\'\275\367Kb\277\205\237n?\242\245\264\275\0171\314>\023(\210\276\304\200\r?\031\305\010\276\330\353(?\200\030\270\275h\203\216\276o*\200\277\376\367\370>@\377J=U\225\225>\'\230\t\277@(\342=\337\370\263\275\242\340E?\305>Q;Y)\312<\277\256\220\276\262\343\304\276A\331b=\320#w=6?\213\276\311\304\260\274\222\374F\275g\300\021?\013;\306\272\037i\343\274S\300\225\274\r\020\245\276\350\021\013;N@4\275\225\350\262\275\010Il\273\344\356^\272\314\t?>\354\321\207\273[\013(\275\3001?\275w\354\212\275\001\337\206\274#\267S\273\223\2722\2738A\347\267\333{\203\265\267\234\233\267\"}\027\273\255\'\300\270S\\&<{}\027\271\275k\212\270nq\214\271\257\301\354\273\0172\001\270\277\322!\267-\354\222\274!)\226<\332\366\371\274\251_\242\272\371~\317\266\360\3715=\241N\340\271\347aN\274\251A\351\271)\204\000;\260\251J\274\321\221-<O\235\200\275[\252\346\272d\335I\270hi)>\364\213z\272Y\004\314\275\254V\276\275*\341\000=v+<\276zB\022=\303\200\010\275\265K\036=|8\363\274\362-{>\322]\032\274ko\001\273\241\310T\274h\0040=\372\335\347\276\313 \010\276\355\206\340>\203\355\200=\320\020\237\276m\303\021>\257\3568\276\276x\316>{\275\230>\000C\244\275u\3139\277\255\260\322\276\336\352\031?6\374\372\274L\310\t=\024\207&>Y\337\360<\202\252\373=\202\201.>k\217\021\276lr\225\276:=\363\276\\\310\267>-\341y\275\230\t\222>\200\177\273\27593\354\275&\215\271>\254\263\006?\323\tR\276(#B=\320\237\272\276\301a\336>g\276\337\273u\366\323\274\215\321\254\274.m\016\277\245\370/>\240\013n>\267\022\372;\301w/\276\030\345F\276\336O\255>\303\215\026>\367I\037>\3318H\276|\014\255\276\227\322\222<\237s\254>f\335\211\276X\377\t\276\340\367\006\276k\346\234>\305\322\010>\227\024\277>\021\246\301\276\355\225\204\276^\315\273<(\241\177\275!*A\277\307\023\227=@\247\010\276\222\331\267>\325a\257>\275\267\251>?\256*\2769\177\024=\325L\325\274\366X\024>\327{#\2773\207\001>\322\215\221\276|-\351>V\347\203<2Z\375>\354\256\031\277\255\260\225>\324\322\340\273~\310\213>a\240+>\345\035\217\275{\361\200>9\372\263>C\177\223\274\225r\032>\220\223\226\277:\355^>\002\315\027\276\262\302\220\276\220B\222>\250 \212>a\031\264<\275s\222\276\030\321\t\275\237KD\275\305a\031\277\177\334\013?\014\277\000>\201lW\277C\003\032?\262\213\307=\005\310[>\220\\\330=\232\001\316\275]\224V\276\332C7\276\3453\214>\360k\031=\003\235A\277e\013\336>\307\2264\276\222\364\002=o\267l>\321\374\332\275^\303R=a?\336\275\210_s>E\016&>\0100]\277\2762\213>\034\330\353\2741\251O\275;`\330>\266\327\241\276\264<u>\327\226-=\357\3516\275\306\343\247>\367M#\276\000N\022\276\000\316\247\276\272g\367=\211n\033?f]\306\276=\342\347\276\211\025\251>\331Z\306=\202x\241>k\216\025\275$\313\'\277=\360J>uj\202=[\3468>\300\316n\276\216\264\034\276O\212\010?$C\022\276\331!{>\342\032\033\276h\265\005\277\\\035\231\274\321h^\276_\354\354>Yp\265\276V!\036\275\255\220J?7\001 =\320\233\034<\232\272o=\003m\231\276\335C\t>\177\236\306\276\000\004S>D\010%=r5H\276\317&\312>\255)F\276\353\256x>\007}A>U\253N\276$S\025\276R\235\255\273\343\220\271=\301\360\006\276\336\247\032>^\302\340<\322\222\374\275\245\236\031>[\036\003>\333\373\005\276\025\022~\275\310Z\245\276\014\200\033>\270\323\335= b\277>6\377\231>\212\225\370\276\215\253{\275\r\001\350>\230\352\271\275,\241~>\340\313A\276\244\263\320\275$\320?\275\206,\354>F\357\270>\024\300\361\276\364\222\037\277!Y\025?,m+\275\334(\354>I{\\<\222\326\214\276\305\352\206\276\231\355\264>\270\211\205<\262\306\202\276\244\207\027\277\263\270\251=k\322-\275$\3410?\317q\004\275\312I\254\275\341I\255\276\242\256\346\275\017\332\276\275b\257\267=\375)$\276\327\2072\274A\005\371\273_\004\350>*]\206\274(\322\332\275kkT\275\200~`\276\336\216)\274Z\030>\274\323|\226\274 \253\312\271\307\276\376\267\362Z\210<\275\271;\273\2418\221\273\300X\317\272z\025\326\273~\340Q\271\316\274\026\272\033G-\270@\031&\267\323\264\275\264c\004\314\266\027\262F\272;U\030\270\263\207U;\307\353F\270\376\212\2178P\321\275\270\354\331\033\273\225\231\261\267pE\177\266\346\354!\275kM,=P\360\000\267\377\221\315\272\234\350\001\266\2143\'\270pud\272EK\240\267\024i\260\272\375\203J<\346\333\236\274\007\024+=&\264\241<\361\325\004\274\340+\203\271\231\341\023=\257#\310\272G\201\242\275t\342\337\275s\331\332;\206\253\351<\357A\016=Ca\252=\326]\025\275\177\036\271\275iP\337=\315b.\274\210s{\274\213\2071>\251\300\273\273\357\230\362=8\223\213=/\265\226>xx\230\275\202\014\377\276\375%\330:\217n2\276L\324\305=Q\274\346>\201\325\021\276\317Z\320>\223O\276\275Z\246^>.\016\235\276\025\t\353\275\034\324\033\276\306<\242\276\\\\P=*\035\364\275|\016v\276 \337\275>E\t#\275\262~\220>G?\273\2758\355a>\370\332\305\275/\274\270\276\254v\230=\006T\326>\226\327(\276\333\001\367\275\337\207\225\276\322\201\320>\210s6\2761\377\242>\220`#\276\2652\215\276R\331?=\226-\256>\234cg\275\333W\007\276\200\357\330\276\023\266y>\226\371*>\211\263\214>N\026\256\276\241\240(\276\026\325\272=|\342\251>Z,\262\276\372\005\252<ST\270\276\256\322\303>\317\243k>4\267\037>\006J\317\276\366\320\224=K\264\245\275\207\'\273>\360\263\017\277v\271`=\260\203|\276>\177\276>.|\217=\026\020X>\024\251C\276P\245\340\275\036\026\020=J\021r=\260\247\376\275\264M}\275\243\354\224\275Fo\330>,x\025=\256\314\324>\317\n!\277UZ\033\276U\222\330=\320a\322\275\320\\\215>\2149 \275\032\365\326<2L\032>:\226!>E\005\232>\016\363O\277}) >\244E\351\275e\2244\277\373\271\373>\311\013\202>\326\237\267\274\361\036\231\276\250\207\253\2740\237\026>?f\225\2769#\376>-\276J\275\373\311\204\277\036]C?\234\351F>\256xL>\333\027\305=\243\345\340\2767\306\222>k\311\332\276W.\027?\324\372g\276uIE\277\362\351\255\273\205\233\030=}\255\201>\300|e>\240\203\217\276\017,\341<\216\270Z>\241\344\203=\366\315q>\247\025\023\277O\322\311>\000\014N;\206\370\231\274\223\255\031?\366\351M\276\365!\242\275\033<\215\276V&\350\275\233\304\207>\031\272\235\276\217\215\035\277EpA\276SU-\275\335\333\025?\002n\263\276\222@\264\274\201N??\336{c\276\334S\325>\370 \035=\333\273%\2776\3750\276\002\300_\276\234\270\335=\220A\222>\370\"\342\275M\007$?\016\302\363<\021\002>=A\200\n\275\220\021\030\277V\362\322<\037\277\017>6\034\223>.\310m\275D\020\231\274f\036\200>?\364\270\275\340\302\272=\021\262\214>9\037\326\276\256\002\255\276\361\266\325>\313\331\016\276\377\005\234\275\243 \260=(d\343>\245\222\254\276\0355\261=J\026\313<\213\265Y\276\037\026T\276z\224\221>,\025\245\275\246u\250<\214\227\023>\246\375\310>\0266s\276\226\242\003\276\305UB>p\326-\276#\'\314\276B\177}>[7e>@n\010\276F-\212\275[.\n?n\200;\276I\234~\276L\276\322>J\374\342\275\314V\316\275\200\010\272>[\234\020\276\277n\350=y\034\352=O`Q>\332\020\276\276/f\367\276\t\270\346>a\373p\275;\347$?\225\200i>f\246\023\277R\334\007>\t\316e>\354d\345\275\206\"\333\276\264\031\001\277\267\274\267<9\252\370\274\307\3310?.\347\233\275\"\231Q\276\002\004G\276R\234\020>\245\363b\276\376\264\"=\031\016+\276\261\312\221\274\375{7\274\\!\332>\337\270\260\274\322\365.=\226\365\256\275\255\360P\276J\t0\275.\354\272\274\"\331\200\275h;>\273I\035\264\272\274\313\245=\357\261 \272\002K\033\274\024\'\021\275j\274\233\2744\314\033\272\"\375\216\273\251I\353\273\234\203\247\266\236\370G\264I\r\027\263\234\333\320\266<i\027\270\276;\307\27140:\265\231\347\006:\023F\206\267l\226\223\270\303\006H\270\371#\3677P\352\235\274\324z\302<\352s\264\2667\250b\272\024\025\377\2673\316\331\272\321\327\016\272\214e\257\272\3564\373\273tj\'<\\\331\010\273\n\316\322=\341\342\357\273jc\376\274\203\2723\273\231\\\245\273u\212\257\273\357{T\275\017\200\220\275\375\003\014\273./\265>\272\2676>MJ\276\275\366l\241\274\007\262\023\276X\016\332\275Z\225\314\272&\001\302\275?\333\201>\226D\231\274\360}\363>D\223\325>\0222\230\276\221\215\300\275\262;\002\277\275]\247\275\212\377n\276)2\263=}\310\003?\265}/\276\364\365\217>\352\310S>Q\252\032\276uP\335\275\016U\200=l^\177\276\360!\320\276\005\205\253<C\363\203>\334|\274\276\364\331\343>\013\252\331\275J\376.=\327q\004\276\311\205\275>\243j\363\275\300\311o\276\255\246\"\276\020CE>\033Y\240\276\260\242O=)\244\246\276R\300\303>\016F\010\277\3204\324>O\220\027>\330!\240=?K\303\275\023\'\334>\301\205^\276\375gh\276\374.\033\277\177\220\240>3,g\276\366\317\234>\225\270$\276\007\277\342=\257\217\215>&\354\237>x1l\274\251|d>l:\371\275&\306\335=\214\362\365\2766U\270>8q&\276\031\375\262=\204\325\237\276\326\364c>\326~\362\275\363P\036>q\352F\276\331\352\013\276\366\306\316\275/\273\316>\252,\013\277\"2\207>C*H=\360\023\004>\244-\312\275\t\362t>\021\333\010\275\302\010\007\276d\365U\276\007\001^?\022\374m\277@\364\3739;\264*>7\233\230\276\353\211\201\276Hn\240>\220\013\265\274\212\200n=\256\333c\275zD,\273\261\222M\276\335y\025?\t{\374\275\362Es\277\302\200\350>\360\210\374>\332\236\311>\260\033\212\275\000\274\367\275\377\215\205=m\017\021\276\023\001\033>\305\002\216\276\036\227?\277\367TD?\223\031Y>\220v\001=\376\010\263>\010\304\303\276\021\204r>\347M\017\277\203\237\216=hb\303<\n\203\317\2768\351,\276\256\037-\276\325\262Z\276lv\027?\370\375\035\276\002\214\006>aTz>\000\232\020>h+\033;\332\022\251\2769\377\021=\021\017N>Gw\004\277\301\247\354>\342\224\261\276\2619&<F\206\213=%\364,>\0214~>\331\274%=\263\205\201\277\233E\355>\327\215\307\275{\224\221>\0014\177\276\215\034\202\276 \007\317>\343(\023>\225\203\215>\244\nD=\177\\*\277K/K=L\306\317>)\205E>\\j\207\276\324w(>\366\326)>\354V1\276\004\335\234=T\004\030=\245\200\004\277\260S\311\272\245\366\347>})\307=\341\342j=\365m\227>i=\245>;\362\004\277l5f\276\214\301\211>\221D\241\276\363\300:\276\307GC>\352\361\236>\255\337a>\376IO\275\300\363P>8\371\023\277/\005\215\275?C >-\221C\276\333\214\334>\275\351%=\214\tU>L\346\363\274\307\305\013=\363\023\215>\006\207\017\2776i\272\276<gE>=\250O\276\247~\230>s\301\230>\2438&\276\251r\200>,\301\372\275y\314X\275\252\257\276\276\306\371\001\276\306\3724>L\0328\276f\375\212>\000\375\022?p\330\201\276 \256Y>\2446\222\275u\177(\276(\332\252\272\374v\020\277b\020\222=uGf\275\250\273\032?B\345\350>\270l\301\276 \363\264<!\214@>\222\230;\2766\227\204\2762\334\355\276^\201\352\275\231\315\267\275\222\312\225?=}\017\276$\217-\276\034\202X\276}\325\225=s\377Y\276i\326\r\276\026\263*\276lpk\275z\2532\275L\375/?\033X\312\274}\335\346\275\346\357\014\276>P/\276U\210\t\275JBp\275[\006D\275\364|\374\272C\360\216\272\004\202\005>S\007\234\272\337\242\302\273\315\016\206\275\306.H\275\3345\021\273\310\035Z\273 7\273\271\000\000\000\000\000\000\000\000\000\000\000\000\000\000\000\000\000\000\000\000\000\000\000\000\000\000\000\000\000\000\000\000\000\000\000\000\000\000\000\000\022N\031\271\353\231\3229#\226\010\274\311\204/<\3104\365\266\266\t\200\272\224(\356\267h~\014\271\351\233\231\272u:\244\271\242\031\252\2748\324\224\270\':\202=\\\361\264=\226F\276;An=\275B\246\243\273\253\020\332\272R\255\314\273\244?\237\2753\301>\275|\274\264\273\006$\242>\005\n\335>\332^\222\276*t\356<\371\220\006\276\014\231\316\275\002[M\275\321\341 \276Z\377%>,\304\026\275\365\357\006?i~\375>\223\221/\276\3515\276=D\321\r\277\023\356\037\274$Eb\276?\205\221\276L\362\322>)\030\252\276\024[\307>\t\370\306=\010xv\276\305\217\265>;id\274|\034\241\275T\273\240\276\026!\214\276\305B\275>\\^\014\277o`\214>&9O\275\245l\272\275V\010\006?PV\000>\300\236\210\276\214\263\247\275r\024\202\276\334\254\222>\002\364\355\276:2,>\374\203O\272aU\023>\256\277\255\276acA>(\024\273\276\375 u>\230\370\022>TY\357=\262\325{\276\254a\367=\302\272\221\276\210\2626>Q\037\262\276\014\264\302>gf\217\276\230\366\013>5\346f>\370\277\230>\t\271\013\276\\\">>\3651\'\277\312\0257=]P\210\276\362\215\347>7\241|\276\215\271\315>5h\244\275\266\023\373>\207\213\340=\302\256\363>/\0215\277\030w\263\274\353q\340\276\373w<?:\2273\277\256\357\255\275\366A\021>1\322\367=\347U,\276\214\216\272>6\314\355\276\\\201\305\275\337\002\326\276\216\226+?\355J\210\276\303\246\235>4\211M\275\312*\300\2755\332\303=\001%\345>\"\244\241\276`\250\250\275\306\234\033\277\034M\272=\303\266\032=WA\235>\267-\367=\034x;\277\372\324\377>D\367\312>\302\363\217\276\222\366T>v\335\023\277\271\250E>\337\223\257=\014\022\214>\241\320\205\275\003\366\"\277\231\300\035?\r\370\267=\023\257\336\276\276\226\020?\372^\251\276\306\372\'> \220\307=\014G\312=|Kj\276\332\332\251\276\262S%=Z\357J>\252\256\363\276\326\327\314>\007#\237\275s\213\013=h\256\217=o\365 \276 v\231>h\"\006\275Pg\326\276\270\356\214=N0p\2742\306\221>R.G\275Jzl\275\206O\365\275Dq\226>~\0338=\202\037g>n$N\277\247|t\276\312W\224>\364\253O>\216\274t>j\315\t>r\305\213\274\2152\032\276\324j\365=\276k\310\275\022\342\270\2768\336\251;\n\241\023<\303\217\306>\262K\204> [\200>\357\364\355=^\200\347\276\276\355\355\275\305\213\352=nBy\276\222\374\r=c\360\274>\242.v\276\316\201\347=\3229\202>n\305=\276x\254P<\302\257j\276P{]>o\005B\276\214\204\341\275N\233\335\274IK{=\016\367\252=\352\345r<;q\246=%\037\276\274\206\346\333\275-\3131\275\350\305\364\275\014\361\024=!!\313<\005\202@>\344\211\343;\240\\\034>\244\241B<\201\253\266\275z\233,\276\301\301H>\353\301D\274\006\210\037>\362&\235>\335\331A\276m\227\242\275\310\303\311=\300\202l=E\005;\276\341\021\264\276v\3451=KzI\275g\316\221\275\000i\007?\033wt\276\362\2504>N\256l=\2737\354\275\"\374w>.\005\023\277\344\216\243\273\2009c\274\365\350\005?o\206\334\275D:\266\276\354\230\223=\305NL>\241\033\336=\207\373_=\273a\363\276\310T\034\275\333\227\003\276\374\255\237?\252\271\207\276`\222\213\276\276\353\203\276\304\'\211=T\303\036=\305\253\221\276\207\177\332\275bF\300\274<\353\210\273s.\253>\2713\304\274\240l{\275l#_\2753\314\350\275\233\314\370<\355\035m\2753q\322\274\314\252\032=\240{\275\272\347\310\036=\tD\232\272\317\025&\275\373\231!\274*\350\202\274\027\303\262\273iPW\272\353\365\241\272\307\030\310\267m\337\357\265\344\001\234\267\245\235P\272\021\200\367\2735\204\224\271\216Fk\266\263|\374;\014ZS\271\254*\232:*5\026\270\231P\3368\326\253\034\272\307\334\242:G*\334\265p\361\312\271\016j\337\266.\361\347\2660\371\201\271\347\023\210\270\004\244\251\274\030Y\327\271d\275\224\272\261\315\247=av\003\273|\266\341\274*\245\215\273\356\367\276<\332\366\353\273}\252+\275\342\366\342\275`\364\363\273!\023\030>;v\036?*\340!\276d\034\234<\036{\302\275\022S\004\275P \037\2769\001i\276\222C\212=\274\250\304\275\332\221\027?a%\220>.\227\225\274X\234\325>\314\220\334\276\0103\351\275V%\257\276H\357\266\276\205Z\213=?e\316\276Y%7?\355}\275>o\226\327\275S\352\235>\321\316\245\276\024\t\344\275\027\033\243\275c\247\340\276\314\014\013>[\244F\277m\227F>:\247\217>b\261\314\275|\341\017?u5\"=3\312\341\276\310\216%>W]h\275({f=\313}\002\277Kk\370>\035%\036\276w\252\230=G\260:>\030\'\204>\236v\302\276`\214*;\026\256v\274\026-\305>\353\332\260\275\305\260\033=a\201\210\275\016\271m=@\300\346\275fa#>\016P\255\276\213\231\257=\254k\372\275.\241\250>y\370\006=\243\354\037=\343G\324\276\214y\265=`\234\213\276\227\257\317>\002\324\265\276\034xL>\242\202X\275\254j\333>9Dk\276\037\313\253>\311\014\364\276\367\265\266\276B\177\211\276\035R\227>F\233\310\276*\353\213>\035\014\310>\373\276\314=\006V7\276S\231)>7\n\343\276\031\357\311\275\207HA\276\341:\010>P\331\273\275\217\006\321>\324VG>L2\273\276\334\272G\274\312\341\305>\020\356\022\277\374\301n>h!T\276\017\374P?\215\314a\276hW\244>\022O\301\2764\301,\277f[I=\316\317\313>\222\007\256\276\362\334\313>\265\0103\276\375l\000?in\366=\"Ho=\261(\254\276\002\304\355\276\203\342y>>\ti>\n\372\220\276\235F\254>\276E\342\274\205\345\213<]B\275\275\331\243\000\276\225\024,>l\257\014\276\273\232\247\2761\3133\275\203\323\206>\223\261e>V\324Q\275\245\376\272=\'\207+\276\256\321\274\274\235\226/>\340;\017=\350\366\024\277\265\374\341=\243Z\347>\017\226\221>E\226z\274R]\204>\373\323x\276\316\317K\276\373\177\316\275d}\264\274%\366&\276\260\222\232>eW\370=\023\014u\276\272|j>.\221\235>\222\257\316\275\r\363\271\276CA\222\275#a\320\274\2444\343=1{\321=\372\035\247=b_\211\275O5h\2764\205\251>\257\006\270\275Z\240\251\275\354-\t\276\276T\237\275\353R\310\273\270\254]>\247\323\374=\007\260\020\276C\344\355=\317I\003\275\253\2158\275\216\027\035\275\267c\354\275[\007\225\276%\313\235=5P\270\2750\210\252=\356i\033=\3737\231=\311\3618\2754+\260\274\033\"\376=\260\027O=\321\005\264\275E\362\332<\251\223\360=\327\"\316>B\300\335=\324\325~\274wK&=G\301\356\275n\353\214\276\204:M\276\314\311\227>+p}\275\232/\005>\301\220\352>\320\274\330\276<>\273=\202\330b<8\246>\276\354\334\033=|\226\266\276\002\240\357=\373\335x\275In\020?p\256W>b\310\226\276h\250V>}\225\262=\235\263\000\277\315\352V>\213_\n\277\250B\275\274\363\315\027=\227nv?S\324\237\276&\237\237\276\371<\200>\322r\262=\031e\212\276L\t\031\275\005\342\303\276\214a\020\275H\270f=\312\347Z?s\247#\276\n\222\220\276\265\242\'\276NP\250=\230\270\226\274\211\256z\276\351\320\266\275\240@K\274\361#\332<\353!\320=\241\005\231\274\300\013\303\274\230y)\275\366T\001\275\217\335 =\304\037\016\275\333`\243\273aq\004\274\214w\021\267]\206W=\375Y\231\271\356`\332\267\344a\273\274\3732\250\274\366D\217\267\324\'\246\271\214#\365\271z\323$\260/\307\2538\312u\205\270`\204\037\266\325\320\217\261\006\340\223\263t\355\"\26450?\265\260Eu\267z=\265\264\363\331\023<\364\222\3439\374\337F\273>\225s\272\013\202\212\274<Z<\272uM[\272\237\324\370<\211\334\221\272+z\205\274\375\261B\2749O\225\272k\177\304\2730=u=2\265\272;6\177\270\274R+\234\273\236\313\253<Z\251B\274\302F\350\274g\227\241\275\\\376b\274c\262?\275\243\365 ?,\262\217=\004\351\004=\237\237\316\275\245\321\316\275%\000_\276\273G0\276\277\246M\274K|)\276M\206\251>\304\375\263>\272!\202\275>@\346>P\350\203\276`K\200\275\252\203\231\276\206\221\212\276y\021\241=\350B\031\277\016A\t>n\000#?\000\013\210=\244Ek>_\025\222\276\024Q8\276n\321 >Dat\276\210U\200>\272\320\270\276\000\231\245=Z\341\033>5wA\275HY\225>\367t\267;\342\016\275\276|\201\355=\242\330\364\275\020\222B>\320\203c=4\353\321>\223\245\352\275#\264\217\275\0325\237<\034\203\035>-\214\007\277\200\252\341\275YK\220\273\320V\203>\351\226\t\275U\212\202>\017#\233\275\262q\244\276\315G\240>\252\334\377\274\212\t\223\276\205\372\227==g\031\276\003\036\010=]\266\002>\253\242\323>\265\210\005\272\030\306\357\276\256b9=\304\256\311>\303\256\244\276*\376E>\240$\325\276v\226\222>H\323\021\276\325\260\006?Y\275j;q\346\n\277\365\255\023=\023\r\000?\270\353\'\2772\330K>\007xW\2764%\320>N\370\031\276\361\341p>\321\361^\276\314{\371\275r\334\265\274e\250J?\030\247\250\276:[E\276\310`\314\276\263\337\214>\013|\032\276\nXD>\217]h\276\214\220\031\277\007w\223<Ph\'?\331n\332\275\342t\263=\353\217\021\276z\3325\276_\267a>\272\207\022?\275*\356\275O\343b\276\177\254\267;\0146B>\372\004\004\2763\037\350\275l\342k\276\033\\\243\276\212G5\276\204;A>L\341\217\274\225\312\247>\271\004\025\276\363\016\310>\235KR>\252\305\007\276\3429\244\276Uc8\276\033\235M=\257\303\247> \034\277\274\266\304\356\274\222-\266=\0233\207>+SY\2765p\215\275$A^\276\345\034q\276\304\366\177><\333\234>\314\255\020>\255\354\322\275#\377\212\275\017\314l>\2547\363\276\342\203m=\024\013\330\275\350\217\372<\252\002\215\275!\261\242>*Z\324>~\'u\276Y\267\005\276\237\251j>(\022\311\276\207g\243=\323Av\276\364\273\322<\237\022\373=6\372?>\340\027P>qBO\276\275X+=\316\372\323=<d\367\276Ow&>(4%\276\313\2705\276]\213.>\230\202n\275\365\t\031>\273\272\245\276m{B\275\375vj>\207\256\'\275\343\2738=\212p\\=\251\213\271<\177\200\202=\326\2637>\273\224\311\2746!\234\2766\320\212>%\314\246<\223Y\224\2767\335\242<N\257,=\323o\321=\020\010\237<u\207\212>\364\033\264>\223\366Q\275\234?\n>\336`,>\037u\005\277\201\016!\276B\220\242\276]\377\265>s\212L\275\273\200\330>\340\026\033>\366\322\036\277\266\252\305=Blt>y9\n\277\254\277\235>6\302\271\276\277\2732=1\203\225\274\277\371\275>F5S>h@\340\276I\211\232>\256\372\310=_m\021\277z\207\214>\205\307\212\276\277\253\375<K\240\313=\325E\324>\245\223\033\276\010\252\223\276\347\330\240>\021\016\242;%\344\027\276\317B\304\275u\3457\276t\344\210\275\323\227\365=\002K/?\r\222\257\275\022Z\022\276cA\025\275\232p\017\276\257y>\275\373Zj\276F\240j\275\"\263L\274_R\320<\026\313]>|93\274\347J}\273\207\017\216\275\207\346\235\275\367\030\\\273!\226,\275\336\203\272\274<\276\005\273[\\|8\026v\277<\213\242\007\2718\003\355\263,\t\350\2731\227f\274\225\337\362\264\007\341\335\270\340x\r\264\000\000\000\000\000\000\000\000\000\000\000\000\000\000\000\000\000\000\000\000\000\000\000\000\000\000\000\000\000\000\000\000\000\000\000\000\000\000\000\00029\272<\306C\336\267|\363\326\273-\212:\273=3K\2719\017C\272\332\321\t\273\223\27507\331\244!\273z\257\377\273\322\264%\274$\036\017\274\026\024Z=\342\034\022=\304J\002< \222\355\273\245c\261\273\347\217\200\274\336#\225\274@\326\000\275\200,\246\275\224\226\373\274\273\203\001>\026\330\006?\275\025P\273E?~=\"{\234\275\202\237%\276\274UL\276\343v&\276\244\274\235=\037\226\265\275V:\313>\351\352\021?\351\303\344\275\324H\t>6\355o\276\030\022\252\276\337\323\210\276\032a\023\276\034\024\230>\350\246\347\276\311\007\253>z\334\227>\017\025\216\2764\231\356>\320\361\246\276\r(\273\276\252y\236\275\213\210\327=S\235o>\372\340c\275\246\361\225>\303!\003?Wz\226\276\274\364\206>\002\000c\276(\177\017\277\215k\375<\337\265N\276\017\037N>\"\342G=s\335)?\364\354\216>\322\226\013\277\351\314t\276\003\250p>\024\200\021\277\031\"\350>.K\007\277P\022{>\033\361\221>\306\340\301>V\001r>\322\361)\277\217ac>\260(\356\275\tZ\230\276%\367\226<\030\265\235\276\3536{>\354\366.>\371\302\313>\273\303\325>\301\237\332\276\205\224c>\266\322\224>!9\342\276\342\034\221\276\013\243\027\277\035\353\233>\375\ns>\t\264\254>\004:F\274\000)\346\276\320\222\032:\267\031\020?\212\321\301\276\377k\004>\tX;\277\205>\332>-~\226>z\226\360>\372\337 \276y\237-\276S\356\232=?\033\276>\276\371\274\276\244\352\'\276\000\376F\277\360$\000?\226{O>\024\365\221>r\265\001\277\3410\212\276~Wq<\276\327\033?\226w\355\275#\337\203<\365=<\277^\312\023>\312\347\304\275c\316\343=\236\251\025\275\257\315\331\276I/\273=\326\037F>\230,\274;\231\324A>f\2465\276\334\261\213\275\020\325|\274L\205\207\275\226y\013>\364\014\"\275\033\037\020\276;;=?\340\233\321=\222\014\244\276\002\210\247\276c\337\231\274\216\231p\2743\204\264=\367\342\245\275\256z\261\274\350N\247:)\313\316>-\376\226\276\346@2>\017\006r\276OT\031\276Z\247\253>\030!\366;`\\\000>m\221\016>\251LC>\344e/>^\"\364\276\014\275|\276\033\225\304\275\235\333\034=\355\022\256>\n^8\276\247\337w>F49=g\350\232>\317\313\223=\013\203\037\277\270\301\310\275Ev\016\276@\206D\275\031.\362>:\"\r>\372\244\244>W\274\343\275u\371u>l\325\265>\316\241d\277\216\205\312\275\027\322\300\276g\016\200\275\246[\341>\nW\226>\240-\302=Vl\276\276\355\204\017>:\213\220=\374/\014\277~\226`\275~\217 \2737\250\022\275q\337r>\315\317Q>\234\\\257>\365c\204\276,\250.<z\225\236>\263\033B\277\360\270#>DWY\276R\315\261=\312\035a=\226\201\266>\260;6>\276\235\241\2750*\n>\246\227\270=M\033:\277\354\274\241>\365\220\322\276\330\241.>k\374\006\275\226P\250>L\032M=\022G\300\276<\004&?\300\262\014\276\304\223\"\277U\231\235>\233>\246\276\365g\254\275\274\2410\275\006\321\207>\021p;>\247\034\266\276\373\020`>\223p:=.\036\270\276\0109T>,K\236\275\177\334F\275W\354\305\274\021\005\010?\306H\266\275\201\274>\276\000g\355=e\227\214\275\343\337\206\2750\233]\276&\225S=?=u\275\262\222\205<\251\307\232>\216\3526\275\231J\017\276\036\n\010>\353\013]\27538\206\275eM\035\276\342j\207=\367-\002\273N\\\323<\321I\200=\372G\201\273\177@\214\272\344\037 \274\360\320}\274\2054\r\273z\005\033\275\310}\204\274\255\272\205\270\025\245v9\036tC\271\024\362\276\270\344\3610\2709)\317:\317;)\266d\353\257\267\310\036\261\272\276<q\270\345?4\262LL\0259\371\345\205\2704\032\256\267I\217\276\264\333H3\265\273\247\213\265\252\372\001\267\213\237@\270\326|\010\266\301\303,\270\205\273\0008:\364\0339\341^(:\355\304\263\265\202\251\264\271=\021\325\267\333\264:\271\244\303`\270\212+:\271Ae\317\274\006<f\274\033+\315=&\373\276=L\327\324\2722\n\277\274\200\364\251\273V\335\233\275:\020\225\274\354\272\362\274`\2648\2756\027\274\273r\033c>\000\375\266>DY\262\275\207\221\277=G\331T\275\301-\\\276\354\206\014\276&\270\005\276\231\322\204\275\213!\365=\346\021u>y\330\264>I\212\027\276d0\251>\220\017]\276p8\273\276\272i\310\275\275\n\032\276\236\2118>7\233\377>\244\2207>\3147_\272\000\256\024\276\221\304\250=@\246\253\276\235\327\321\276@\273\177\275\271ML<\324r.>s,\276>\31714>\224\362\251>\314\376\366\276\346\\d>N\003\350\276\255\033\004\277\030%\221>&/\326\275[b\026>\345\317\377=W\331I>A\237\224>\272A\371\276\274\371\254>=I\225\275\337\211\030\277\260-\300>\3151\242\276t\354\245\275\206\350R>x3\232\2757F\217>R\361\272:2\247\305=\022\223V>\231$\234\276n\"\242\275Jt\201\276\016P\241=9\261\010=\220\337\224>\225i\237\276h\t\267\275D\235\017>VIm>N\036\327\276\240\024\212>]\020e\276\210(\236>\014\343\247>\273\231\240=\321\300\001\276\341a{\276\246\367\244=\306-\177>m#4\276E`H\276<4\232\276b:\316>\256\352\022\276F&\321=\202h\245\275\355\355,\275\210\022X>6\371\263>\203\301\237\276\032\317&\274\370!\365\276\253\"\311>\350.\032\276p\237\307\275\333&\356<\004\250\312\275\216b\'=S\211\'?\031\374\310\275H\177\202\276\010\235\325\276z\345\347=\364\017D\276\241\2472>8\246d=\372wX\276\016Z4=\371\361\026?\306\205\204\276\355\370\t>\r\204\346\276\264%g\275\235\306k>[\314\n>\372\235]\275\313\223\017\276\"\364\320=\024t(?N\326\327\276\026\215\315\274\216]\333\276\030\321\371;)\335\r>\307\000\235\275o\362\344=3U\365=,\3419=\313r\211>C\nG\276\347\177\253\275\241q\254\276\212\272c=\355\220\210\275\034\300%>\177CE>\224\223O\276\313-Z\275~U\225>\366-\036\275jQS\276\004Y\t\276_\000I\276\250qz<\244\203\302>#\276\276\275\276\3627=\261@\037>\230\233\000?\374\213\300\276\234-\223<\243\244\346\276\\\347J\276\2500\001?\'\005\267>9a@>Hp`\276e\017 \274\310^\275>\215\201\346\276BA\275\275dx\346\276\002\323\242\276\335\223\237>\362\320\367>/8\253> \277\245\275\307\206v\2753U\376=`\337\377\2769n\322\274\365\030\212\276|\325\374\275%R\356>\222\016N<%\352_\274\020\tk\275\202S\237>\222\345c=T\234\024\277\375\305 >\262Oh\276\267\266\254<\014(\221>\003xS>\203I\013\276\201;\334;\014|\345>\003s\203\275:\0373\277\007l\023=9(\321\275\312G\203=Q\350^\276\210(\350>\200sR\275\263\'\357\275\006\t\t?\004>\241=\260\357\035\277\033\2211>V\270\232\276\226<\004=\0258\035\276\335v\035?\230\006E\276\210\207I\275\037\026\206>S\251\355\274\273\034\303\276\264\031\034\275\242\000\207\275o\301\244\275T\3652=J\355\276>}\213-\276\370\273\004\276J:H>`\221\365\274\260\341n\275v\031\212\276\001t\000>\334P\007\275m\267H;\343\323;>\036\361\022\275\324\033\000\276\231`>>\014\205O\275\374\210\006\275\373H\327\275\204\320\'<\317\316\007=\275\203/\267\317\233\232<\202\226\323\273\317T%\273\247\003\221;;\241\214\273\353\215k\273\\$ \274\344\'\364\274=\\e6\030\353\212\253L\035\237\265\270$\352\263\246\242E\260\254\264\026\265*\267V\263b\rN\260\233\213\310\265\\\256\216\262\347\235.\262\351\241\0209\312\266\201\270c\251\250\267\317\232\270\264\224\256-\265}J\207\265\251\325\373\266\217\232:\270\3578\004\266\332\364\202\264\365C48)\236\252\267\360S\2237\336\221\367\263\310\356!\267\226\252\256\264\354\2220\267\337\337s\267a:\241\266\222Z\230\273\367\021Q\274w\034\206=\202\331\334=\305U\256\271\202Pr\274\261\351O\271\333\322\324\275\003\211\024\274\234&\342\274#\200\203\2755\371]\274)jD>\037\377\230>\362N\315\275\275\350<=\017\334\263\274s\251d\276q L\275\225\\\202\2758\031\234\276A\333->\355\361\216>_Lx>%\261\026\276\226\271\237>\302V\327\275lZ\222\276G\352\021\275\236~\377\275\027\221\215\2744:v?\256\225W>\335I\227<\205yd\276\035\355\r\276Q\001`\276o\311\014\276\026\203\330\275\027!\263\276D\277\215=@Q\022?\231\321\301>Z\003\215>\004\216\223\276\236\030\206\276~J\341\276Y\033.\276$\244\230=\366#V\276\200m\225=\234\206\262=\272\224\271>\373\3137>?\272\244\276\234iQ\275\335\233\230\276$l}=\n\331U>N\217\232\276\326\275\203>p9e=\300\255\302>5\321\276\275\334Tf\276\360\330\\:\363\311\361\275\307v\302\275\352W\323\275s\350u\275\240rI>\'\355\340=zk\266>+#\020=\022+\257\276\233\311\363<\304\246\016>n\032\210\276#\224\210\275|\025E\276\357[W>\2226\025\276\036$X=\224+)=+\016i\276\017;\030\276\211Dv>\340\272\305\275\020\016i=\302 \211<\346\3674>\205p\337\276G\206b> nD>\372\214@\276\370\232\257=\272\264)=\356\365\273\276*&b>\243-\\=\213\2672>\266g\035\277\350\034\026>\336\343D\275L\014R\276\035\237\020>\220\304\260>|\376\204\275\204\225\376=\030y\215:%\374\'?\330/\311\276\002\265\204=\216\332\034\276\024\267\255\275\363\356g>\215\317\246>X\313\367\276\225\275\342=>\306\211\276\275s\001>\245\324\342\275.u\221\275\351\314\000\276\226I(\276\304\3248>\376\037\204\273|\253\014\276\264\262\213>\326e\t=v{\032>\264l\243=\003\010#\276{\034\327=\315\025}\276\216<\302=\035P\210>\035\025\335\275\242\371$>\343\347\257\276B\227\231=\307\234\n;\350\363\220<x\177\267=\332\303#\276l\235\037>\nX\022>\264\350\307\275;\3163\274{\324[\276\341\256\000>\235\207\217>\231\307\001\275\002\t?>\036.\223\274t\2759\275\326\271W=LO\217\276\321\256:=\334\275\241\276\n\022\020\276\016\371\n?\330L\010>&7j<*\010\213\275\231YH>\343<6\275\373?\210\276\255:\350\274\tA\255\276F\257\020\276\332\276\246>\332\007\204>\002\005I>>\254\214>E\023X>z\353p\275\306\252\214\276\270\322m\276)\373\016\277\3710T\276\352O\270>\2415\236>k}W>\331K\313\272\253Q\325=\317s\r>\026\030\026\277\267o,\276\270\014\"\276\004\000.\275\324R\233<\301\265a>\366\026\267\275\211x\264>\017\342!=\302\373\037>\255\3032\277\377\376\030>=\324\332\275\371\026\341=\rQY\276\207\207\321>\242D\214=\246NX<]\252t>\304K\365\275\222k\000\277\336\243B\274\275\207\274;\t\177\236=\274>\326\275\356\003\237>\241\330\003\276\014\230\001\276\274\321\255>\230-*\276\377\326\277\276\025\374\306\273\314\2717>\307pr\275\300\215*\274=\366\207>\001>\021\276\001\227\001\276pnZ>\266\014\215\275\271\263k\275\344\240\003\276\247\247\351=2o\272\274b\371q\273\264]\263=|\301\036\275\027M\272\275\004\256\361=R\"v\274\024O\355\274\326\016$\275\241\332\r=\025\361c;j\223\265;\373N\t\275\320\265\000\271\027\340\254;\325\313\n=\334T5\270G\336\336\272\210\236\236\273+F\002\274\233\267\3236y;\000\254\370\337\022\266\346!X\264\301n\266\260\356\034\213\265\3542\306\263\2763\276\260i\0369\266\244\264\003\263\000\000\000\000\000\000\000\000\000\000\000\000\000\000\000\000\000\000\000\000\000\000\000\000\000\000\000\000\000\000\000\000\000\000\000\000\000\000\000\000\000\000\000\000\000\000\000\000\000\000\000\000\000\000\000\000\000\000\000\000\000\000\000\000\000\000\000\000\000\000\000\000\000\000\000\000\000\000\000\000o\215\206\271\300LR\271\022\014^:L\225\334=R\3000\271\3406\214:\351\027\324\267I_\245\275\240\372\001\273&\367\326\274\3436\014\275\361\026\232\275\376\304/\275\332l\265>\214P\215\2741\216s=8w\031\273\023\3367\276\021\2141\275Y\r\233\274\310hp\276\315^\030\275\361\2367<\252x\313>\025!\225\275y\222\216>H\"\224\274\035f\024\275_g\321\275\346,>\276\376rr\276;?\003?;\037\203\275\006\361\270>\306\351\n\276\246\334]>\353\271\207\275\353\270\304=0\271\302\276\335m\233\2769\307\243\275[\327\335>\333\312\001\274\324\331\240>@+\204\275\000\267\3657:{ \276\034\013\223>\254\321\337\276\341\245\223\276\210\313\021>\365\235u=\007\003\024>\351\254\224>\210\213\006\275\311B\205\276~w\232\276\027Y\320>V[X\276\224\317s\276\000\220K>\355/\200\2753\232@>p\360#\274\304\351\353\274\217W\016>\001(\232\276\231\300\334\276\353k\235>0\237\2259\235\274\233>\331\360_=\273\002j>\'\202Z>\031\303u\275~E\333==$\240\276j\342K\276\266\240\237=I\351\323\276\246\250\301>\2301\261\275q2\364\274\243\231\330=\316\036;\274\220J\270>\025[\352\276\036]!\276\351\375\221\275V\207\362\274\224\014\302>8\021\t\275\243\027h>g\354o>o;\230\273+\255\224=\250\262\250\276\347\242\327\276\315\021B=?G/\276\272\301a>\364t\262>\344\010\030>\337u\240\276w\303$\276\004\335\350=\214\264\253\274h\230\305\276\222\261\360=\303K\212\275\302\371\203>\205U\332<\215\2124\276\023Z:>B\330\227\275d\034\006\276\036\"0\275\177\222\261\276\204\267\002?\t\266R\276;\257\220>w!\205\276\372?n\2757%M\276+\007\"=\201\004\035>R\371<=O@x\276\0343^>*\022\267<\263\315d>\234\370\022>ix&\275\362\350\226\275\264\273\352\275p\304\305\272ei\200\273\"\227]\275\365E\027>?\247g\276\371s\341<\312j\207=\252ty=\354\313\311\276\232\n:>\210Q\200>0\241\360\275\030\341\211\276\276i\257>d\027\030\276\201\236\033>\254}\252>\353\031\305\275\030\264\321<\003h\200\274\035\336\273\274\346#u\275\236\257#\276E\216\262;8V%\276\372r\310\276\277\240\223\273\022\036\223>\250`\246>\204\277\215>\325\036\260\276\036\244:=\341D\214\276Q\324P>\374_\377\275E\237\343\276\002,Q=\016\025\001?x?\036\275d\007l>\271\221\305\275\250\276\245=\272\316\362\276\210\334N>\022\334r\274.$\325\276So\272\275PG\346>\336f\201=\304?f>\213\376\241=\256rs=9\005%\277\252Ma>\006\246c=2%;\276\332\037@\276\307\201\016?\270\340~\275\355\361\226>\273\263\213\274\326;\004\275ah\'\277\250\216?=\243Vs>\226\267j\275<\027\020\276\230\215\377>A\244U\276\253\220)\276\374=\331=J\nY\275\361\252\323\276\302\005\207\272\242s\336><1z\275e\201\002\276&_\251>\252 \000\276\376\271K\276\207AX>/\240w\275\321}\305\276\346\311\263=#t\250>c\034\276\275\254\t\030\275*\363\222>t4-\275\306\030\014\276\037\323\006>E\263\033\275\227E\370\275\315\274\301\275I\253\023>\r\301w\274d\343\253\272\030d\321=\\=\022\275z\256w\273X\'+=\230\000\001\274\326F\017\275\257O\014\275\264D4\274\230\355\022\267D\363\355<\241\201\277\274\020^><\024\346\262;\301\263\244<\337\231\022\271\207\234\262\272)\213\323\274\337B~\274\000\000\000\000\000\000\000\000\000\000\000\000\000\000\000\000\000\000\000\000\000\000\000\000\000\000\000\000\000\000\000\000\000\000\000\000\000\000\000\000\000\000\000\000\000\000\000\000\000\000\000\000\000\000\000\000\000\000\000\000\000\000\000\000\000\000\000\000\000\000\000\000\000\000\000\000\000\000\000\000\000\000\000\000\000\000\000\000\000\000\000\000\000\000\000\000\000\000\000\000\000\000\000\000\000\000\000\000\000\000\000\000\000\000\000\000\000\000\000\000\332`\331\272kY\273\266\223\3557\273i\022f=\271\353\022\267m\342\334\271\233\250\211\265\207\025-\275\272k\306\270\260\027\022\274e\320%\273\333\024A\275\366\204\365\275\307\227]>\240\222\241\271\240\270r=\273\000+\270\325\354\230\274\2133\205\275\354\240\264\274\337\025\216\274Tj\235\275\\\223C\276\027X\276>\247\347\366\274\001 \337;p_\026\273Y8\016>\210\353r\276\0260\031=5\342\361\275(+G=\2662\242\2762\334\240>\265\312\313\274\320\326\274<\343-\262\274\261\272\356>\222\007\337\276z$\205=\337h6\276\332\310\023=@\026\334\276!\305\021?(\233\375\273;QJ\273B\322\031\275\324J\353>v\355\345\276\227}%=-\230p\276\215\246\334\275\233\276\265\276\225\207\010?\230\227\375\273\340\362\301=\331}\304\275\037\256\223>\220\356\215\276\004\376%>;A\350\275`-p\276Q\000\020\276\300\234\020>:\311\206\275\301=?>>DB\276j\n\n>\242\205H>\345\030\257=\272\260\361\274&\366?\276\025x\332\274!\004d>X\n\247=\323w\334>\251A\213\276\3235\023\275\215\026\214=\022\334\200\276\036\271\010\275\\\360\200\276\3779K\276\367E\361>~\205\373<\2418J>\354\347\275\276\360\266\202=LyB=\224\2503=\017\0045\2751A\231\276;\367\345\275\276\224\312>\340\177Z>\014\\\017>\033K\n\277\005\204\224\274\3018\346>\223\372<\276\nX\252>\312Y\250\276\004\021\036>g\364j><\337\"\276F\222g>\325\261\343\276\241\237\227\275\025\014\253>\360L\212\276Z,